<unk>	0
<s>	0
</s>	0
<pad>	0
<0x00>	0
<0x01>	0
<0x02>	0
<0x03>	0
<0x04>	0
<0x05>	0
<0x06>	0
<0x07>	0
<0x08>	0
<0x09>	0
<0x0A>	0
<0x0B>	0
<0x0C>	0
<0x0D>	0
<0x0E>	0
<0x0F>	0
<0x10>	0
<0x11>	0
<0x12>	0
<0x13>	0
<0x14>	0
<0x15>	0
<0x16>	0
<0x17>	0
<0x18>	0
<0x19>	0
<0x1A>	0
<0x1B>	0
<0x1C>	0
<0x1D>	0
<0x1E>	0
<0x1F>	0
<0x20>	0
<0x21>	0
<0x22>	0
<0x23>	0
<0x24>	0
<0x25>	0
<0x26>	0
<0x27>	0
<0x28>	0
<0x29>	0
<0x2A>	0
<0x2B>	0
<0x2C>	0
<0x2D>	0
<0x2E>	0
<0x2F>	0
<0x30>	0
<0x31>	0
<0x32>	0
<0x33>	0
<0x34>	0
<0x35>	0
<0x36>	0
<0x37>	0
<0x38>	0
<0x39>	0
<0x3A>	0
<0x3B>	0
<0x3C>	0
<0x3D>	0
<0x3E>	0
<0x3F>	0
<0x40>	0
<0x41>	0
<0x42>	0
<0x43>	0
<0x44>	0
<0x45>	0
<0x46>	0
<0x47>	0
<0x48>	0
<0x49>	0
<0x4A>	0
<0x4B>	0
<0x4C>	0
<0x4D>	0
<0x4E>	0
<0x4F>	0
<0x50>	0
<0x51>	0
<0x52>	0
<0x53>	0
<0x54>	0
<0x55>	0
<0x56>	0
<0x57>	0
<0x58>	0
<0x59>	0
<0x5A>	0
<0x5B>	0
<0x5C>	0
<0x5D>	0
<0x5E>	0
<0x5F>	0
<0x60>	0
<0x61>	0
<0x62>	0
<0x63>	0
<0x64>	0
<0x65>	0
<0x66>	0
<0x67>	0
<0x68>	0
<0x69>	0
<0x6A>	0
<0x6B>	0
<0x6C>	0
<0x6D>	0
<0x6E>	0
<0x6F>	0
<0x70>	0
<0x71>	0
<0x72>	0
<0x73>	0
<0x74>	0
<0x75>	0
<0x76>	0
<0x77>	0
<0x78>	0
<0x79>	0
<0x7A>	0
<0x7B>	0
<0x7C>	0
<0x7D>	0
<0x7E>	0
<0x7F>	0
<0x80>	0
<0x81>	0
<0x82>	0
<0x83>	0
<0x84>	0
<0x85>	0
<0x86>	0
<0x87>	0
<0x88>	0
<0x89>	0
<0x8A>	0
<0x8B>	0
<0x8C>	0
<0x8D>	0
<0x8E>	0
<0x8F>	0
<0x90>	0
<0x91>	0
<0x92>	0
<0x93>	0
<0x94>	0
<0x95>	0
<0x96>	0
<0x97>	0
<0x98>	0
<0x99>	0
<0x9A>	0
<0x9B>	0
<0x9C>	0
<0x9D>	0
<0x9E>	0
<0x9F>	0
<0xA0>	0
<0xA1>	0
<0xA2>	0
<0xA3>	0
<0xA4>	0
<0xA5>	0
<0xA6>	0
<0xA7>	0
<0xA8>	0
<0xA9>	0
<0xAA>	0
<0xAB>	0
<0xAC>	0
<0xAD>	0
<0xAE>	0
<0xAF>	0
<0xB0>	0
<0xB1>	0
<0xB2>	0
<0xB3>	0
<0xB4>	0
<0xB5>	0
<0xB6>	0
<0xB7>	0
<0xB8>	0
<0xB9>	0
<0xBA>	0
<0xBB>	0
<0xBC>	0
<0xBD>	0
<0xBE>	0
<0xBF>	0
<0xC0>	0
<0xC1>	0
<0xC2>	0
<0xC3>	0
<0xC4>	0
<0xC5>	0
<0xC6>	0
<0xC7>	0
<0xC8>	0
<0xC9>	0
<0xCA>	0
<0xCB>	0
<0xCC>	0
<0xCD>	0
<0xCE>	0
<0xCF>	0
<0xD0>	0
<0xD1>	0
<0xD2>	0
<0xD3>	0
<0xD4>	0
<0xD5>	0
<0xD6>	0
<0xD7>	0
<0xD8>	0
<0xD9>	0
<0xDA>	0
<0xDB>	0
<0xDC>	0
<0xDD>	0
<0xDE>	0
<0xDF>	0
<0xE0>	0
<0xE1>	0
<0xE2>	0
<0xE3>	0
<0xE4>	0
<0xE5>	0
<0xE6>	0
<0xE7>	0
<0xE8>	0
<0xE9>	0
<0xEA>	0
<0xEB>	0
<0xEC>	0
<0xED>	0
<0xEE>	0
<0xEF>	0
<0xF0>	0
<0xF1>	0
<0xF2>	0
<0xF3>	0
<0xF4>	0
<0xF5>	0
<0xF6>	0
<0xF7>	0
<0xF8>	0
<0xF9>	0
<0xFA>	0
<0xFB>	0
<0xFC>	0
<0xFD>	0
<0xFE>	0
<0xFF>	0
▁t	-0
▁a	-1
he	-2
in	-3
re	-4
▁the	-5
on	-6
er	-7
▁s	-8
▁w	-9
at	-10
▁o	-11
en	-12
▁c	-13
it	-14
is	-15
an	-16
or	-17
▁b	-18
es	-19
ed	-20
▁f	-21
ing	-22
▁p	-23
ou	-24
▁an	-25
al	-26
▁to	-27
ar	-28
▁m	-29
▁in	-30
▁of	-31
▁h	-32
▁d	-33
as	-34
ic	-35
▁and	-36
▁th	-37
le	-38
om	-39
ion	-40
ll	-41
ent	-42
▁T	-43
▁n	-44
▁l	-45
▁re	-46
st	-47
ve	-48
ly	-49
▁e	-50
ro	-51
▁be	-52
▁g	-53
id	-54
▁I	-55
▁S	-56
ac	-57
ut	-58
ot	-59
▁A	-60
▁that	-61
▁on	-62
ay	-63
▁is	-64
et	-65
im	-66
am	-67
ad	-68
ow	-69
ig	-70
se	-71
▁C	-72
▁for	-73
ver	-74
ur	-75
ct	-76
ld	-77
▁u	-78
▁st	-79
▁M	-80
▁y	-81
▁it	-82
▁he	-83
ir	-84
▁B	-85
ation	-86
ith	-87
▁wh	-88
ce	-89
▁The	-90
ter	-91
ol	-92
▁we	-93
il	-94
▁with	-95
▁P	-96
▁as	-97
ch	-98
ill	-99
▁W	-100
nd	-101
ers	-102
▁H	-103
▁was	-104
▁you	-105
ke	-106
▁con	-107
▁de	-108
▁D	-109
▁r	-110
if	-111
her	-112
ate	-113
▁(	-114
▁R	-115
ag	-116
▁at	-117
▁F	-118
▁ha	-119
▁se	-120
pp	-121
ore	-122
ul	-123
▁pro	-124
ment	-125
ri	-126
▁“	-127
▁are	-128
us	-129
est	-130
ist	-131
and	-132
▁com	-133
op	-134
▁N	-135
ain	-136
igh	-137
rom	-138
ort	-139
od	-140
▁ne	-141
▁G	-142
un	-143
um	-144
▁ex	-145
▁L	-146
ab	-147
res	-148
▁not	-149
▁v	-150
ess	-151
ity	-152
em	-153
▁have	-154
ould	-155
▁or	-156
th	-157
os	-158
▁by	-159
ant	-160
▁E	-161
el	-162
ive	-163
▁from	-164
▁al	-165
oc	-166
art	-167
▁su	-168
▁O	-169
nt	-170
▁sh	-171
▁this	-172
qu	-173
ight	-174
pe	-175
ust	-176
▁J	-177
▁"	-178
▁le	-179
ies	-180
end	-181
▁sa	-182
▁ch	-183
out	-184
ie	-185
▁ab	-186
all	-187
ack	-188
公司	-189
red	-190
▁has	-191
ally	-192
▁pl	-193
ard	-194
▁go	-195
iv	-196
ap	-197
ome	-198
▁his	-199
ear	-200
ost	-201
gh	-202
our	-203
▁tr	-204
ast	-205
ak	-206
▁j	-207
▁U	-208
ud	-209
..	-210
▁do	-211
▁they	-212
▁but	-213
▁wor	-214
ge	-215
rou	-216
▁said	-217
▁can	-218
▁will	-219
▁whe	-220
ok	-221
ich	-222
▁k	-223
中国	-224
▁all	-225
企业	-226
工作	-227
ide	-228
▁who	-229
发展	-230
te	-231
我们	-232
ame	-233
ans	-234
ial	-235
ther	-236
▁out	-237
ff	-238
▁their	-239
▁Th	-240
▁In	-241
ong	-242
ice	-243
pl	-244
ure	-245
pt	-246
one	-247
一个	-248
age	-249
▁more	-250
act	-251
ions	-252
ike	-253
▁K	-254
▁up	-255
▁me	-256
ine	-257
ous	-258
▁ad	-259
可以	-260
ra	-261
og	-262
▁about	-263
ber	-264
ated	-265
ia	-266
▁one	-267
▁were	-268
▁so	-269
ect	-270
ime	-271
▁us	-272
技术	-273
ub	-274
are	-275
▁had	-276
cc	-277
ind	-278
▁would	-279
▁cl	-280
ue	-281
▁im	-282
▁which	-283
ake	-284
ep	-285
iz	-286
服务	-287
very	-288
▁ag	-289
▁te	-290
▁off	-291
▁int	-292
▁comp	-293
▁been	-294
▁cont	-295
▁un	-296
per	-297
so	-298
▁en	-299
ign	-300
au	-301
管理	-302
ace	-303
ip	-304
ary	-305
▁year	-306
ew	-307
ook	-308
▁St	-309
▁like	-310
ven	-311
ry	-312
进行	-313
▁inc	-314
ays	-315
▁It	-316
▁pe	-317
▁man	-318
ose	-319
ite	-320
▁res	-321
▁per	-322
产品	-323
able	-324
ord	-325
ass	-326
▁sp	-327
ire	-328
▁Y	-329
mer	-330
▁other	-331
ile	-332
ib	-333
▁some	-334
ence	-335
ople	-336
ks	-337
▁Ch	-338
ations	-339
ical	-340
▁over	-341
ress	-342
▁there	-343
▁dis	-344
ult	-345
▁V	-346
▁new	-347
own	-348
▁also	-349
▁ar	-350
▁than	-351
▁He	-352
ance	-353
ru	-354
▁bec	-355
ount	-356
▁them	-357
ough	-358
port	-359
▁app	-360
ail	-361
int	-362
ree	-363
▁part	-364
▁your	-365
▁when	-366
av	-367
ond	-368
orm	-369
▁what	-370
▁sc	-371
▁people	-372
市场	-373
fter	-374
国家	-375
ase	-376
▁qu	-377
▁just	-378
▁any	-379
自己	-380
▁its	-381
ach	-382
ction	-383
▁time	-384
▁-	-385
▁kn	-386
ens	-387
lic	-388
▁her	-389
.”	-390
▁rec	-391
ian	-392
reat	-393
▁my	-394
▁get	-395
▁if	-396
▁work	-397
ound	-398
▁into	-399
▁tw	-400
vel	-401
ob	-402
irst	-403
项目	-404
du	-405
研究	-406
),	-407
ings	-408
ory	-409
ick	-410
▁no	-411
fe	-412
ors	-413
ition	-414
ident	-415
▁our	-416
通过	-417
ang	-418
建设	-419
ren	-420
教育	-421
使用	-422
ove	-423
▁pre	-424
▁play	-425
ink	-426
生产	-427
wn	-428
ark	-429
提供	-430
ause	-431
ade	-432
,”	-433
时间	-434
ish	-435
ates	-436
amp	-437
没有	-438
▁ro	-439
vers	-440
▁pol	-441
▁she	-442
▁co	-443
▁after	-444
▁first	-445
ne	-446
▁could	-447
▁how	-448
专业	-449
aw	-450
▁acc	-451
ious	-452
nder	-453
ild	-454
ons	-455
▁We	-456
▁him	-457
▁po	-458
经济	-459
工程	-460
▁att	-461
▁fe	-462
ov	-463
ict	-464
▁only	-465
社会	-466
行业	-467
问题	-468
we	-469
▁But	-470
hed	-471
学生	-472
▁pr	-473
rit	-474
▁two	-475
”,	-476
hing	-477
系统	-478
▁comm	-479
form	-480
信息	-481
▁spe	-482
erv	-483
ft	-484
主要	-485
▁act	-486
▁bl	-487
▁Wh	-488
设计	-489
▁This	-490
ck	-491
他们	-492
▁bet	-493
▁–	-494
ning	-495
."	-496
▁back	-497
需要	-498
安全	-499
ces	-500
。”	-501
ood	-502
▁most	-503
▁And	-504
▁dec	-505
oy	-506
▁—	-507
活动	-508
▁am	-509
以及	-510
▁did	-511
ater	-512
就是	-513
rough	-514
生活	-515
round	-516
同时	-517
▁again	-518
ual	-519
ise	-520
day	-521
▁want	-522
▁des	-523
▁under	-524
人员	-525
man	-526
方面	-527
ull	-528
sel	-529
▁cons	-530
产业	-531
文化	-532
tern	-533
▁$	-534
rent	-535
▁because	-536
lud	-537
▁now	-538
相关	-539
▁years	-540
ublic	-541
ec	-542
ents	-543
iss	-544
▁Un	-545
▁need	-546
▁As	-547
环境	-548
▁even	-549
国际	-550
▁inv	-551
成为	-552
--	-553
▁know	-554
中心	-555
ced	-556
old	-557
世界	-558
ments	-559
▁add	-560
▁see	-561
ting	-562
设备	-563
▁ind	-564
要求	-565
重要	-566
▁sec	-567
影响	-568
投资	-569
,"	-570
fore	-571
▁[	-572
uch	-573
▁every	-574
urn	-575
▁Tr	-576
ock	-577
▁supp	-578
大学	-579
▁make	-580
pect	-581
oll	-582
具有	-583
▁em	-584
▁these	-585
ject	-586
ational	-587
政府	-588
▁where	-589
数据	-590
vern	-591
xt	-592
情况	-593
如果	-594
▁bu	-595
oss	-596
ump	-597
▁look	-598
能力	-599
已经	-600
▁don	-601
▁ev	-602
ating	-603
▁way	-604
ily	-605
可能	-606
▁right	-607
因为	-608
▁being	-609
lect	-610
▁rem	-611
row	-612
的一	-613
iew	-614
的人	-615
li	-616
学校	-617
第一	-618
▁may	-619
▁many	-620
▁then	-621
ont	-622
The	-623
目前	-624
▁dif	-625
ason	-626
这个	-627
▁call	-628
les	-629
meric	-630
▁includ	-631
ased	-632
aking	-633
▁think	-634
作为	-635
ath	-636
▁reg	-637
ited	-638
).	-639
▁imp	-640
▁through	-641
rib	-642
质量	-643
增长	-644
单位	-645
科技	-646
ower	-647
▁sy	-648
▁say	-649
▁should	-650
▁pres	-651
▁last	-652
uring	-653
hen	-654
ty	-655
创新	-656
▁those	-657
是一	-658
其中	-659
▁very	-660
城市	-661
other	-662
组织	-663
▁Re	-664
ific	-665
▁much	-666
ities	-667
▁fl	-668
▁state	-669
tle	-670
ative	-671
▁show	-672
好的	-673
▁New	-674
集团	-675
不同	-676
▁br	-677
arg	-678
”。	-679
ics	-680
大的	-681
oth	-682
处理	-683
und	-684
▁rel	-685
▁well	-686
合作	-687
▁ph	-688
有限	-689
▁count	-690
als	-691
什么	-692
根据	-693
人民	-694
▁Americ	-695
...	-696
实现	-697
标准	-698
▁does	-699
▁end	-700
arly	-701
其他	-702
▁own	-703
▁down	-704
▁bel	-705
▁ass	-706
oun	-707
▁use	-708
▁An	-709
ange	-710
▁def	-711
ied	-712
表示	-713
ts	-714
ters	-715
gr	-716
ince	-717
ward	-718
▁long	-719
com	-720
▁before	-721
以上	-722
▁govern	-723
omet	-724
这些	-725
▁mon	-726
应用	-727
全国	-728
up	-729
▁report	-730
ible	-731
ues	-732
▁start	-733
▁ke	-734
__	-735
部门	-736
部分	-737
olog	-738
▁fin	-739
方式	-740
ife	-741
学习	-742
▁team	-743
▁made	-744
对于	-745
ble	-746
中的	-747
开始	-748
rest	-749
亿元	-750
lp	-751
ener	-752
提高	-753
▁such	-754
erson	-755
包括	-756
ek	-757
ism	-758
▁在	-759
▁going	-760
ility	-761
▁sm	-762
▁world	-763
ful	-764
建筑	-765
▁stud	-766
材料	-767
ists	-768
ually	-769
▁ac	-770
▁good	-771
tain	-772
ork	-773
ix	-774
人的	-775
ys	-776
▁sub	-777
资源	-778
科学	-779
▁sur	-780
▁against	-781
▁eff	-782
ax	-783
its	-784
▁game	-785
▁set	-786
ars	-787
▁gu	-788
gan	-789
很多	-790
▁point	-791
roup	-792
规定	-793
stem	-794
▁ent	-795
平台	-796
所以	-797
ell	-798
▁If	-799
▁prov	-800
▁Al	-801
▁still	-802
开发	-803
illion	-804
%,	-805
ank	-806
▁help	-807
旅游	-808
▁while	-809
io	-810
▁lead	-811
▁min	-812
▁You	-813
美国	-814
alk	-815
业务	-816
cy	-817
也是	-818
ween	-819
ms	-820
imes	-821
▁says	-822
▁produ	-823
基础	-824
健康	-825
机构	-826
有限公司	-827
▁ob	-828
过程	-829
▁gr	-830
出现	-831
▁inter	-832
▁inst	-833
地区	-834
cess	-835
▁De	-836
▁str	-837
▁sim	-838
非常	-839
▁Ar	-840
▁For	-841
▁col	-842
self	-843
▁take	-844
工业	-845
ool	-846
ah	-847
ures	-848
land	-849
arch	-850
网络	-851
▁same	-852
▁diffe	-853
▁offic	-854
▁though	-855
▁cr	-856
不断	-857
▁between	-858
这样	-859
uss	-860
ner	-861
ollow	-862
▁ed	-863
选择	-864
ever	-865
ution	-866
hes	-867
ci	-868
北京	-869
air	-870
▁op	-871
▁Sh	-872
:“	-873
治疗	-874
▁high	-875
到了	-876
品牌	-877
read	-878
way	-879
ames	-880
▁law	-881
的是	-882
▁Com	-883
ros	-884
▁Le	-885
▁sign	-886
gg	-887
▁num	-888
▁government	-889
获得	-890
atch	-891
led	-892
any	-893
cent	-894
领域	-895
▁They	-896
能够	-897
▁inte	-898
国内	-899
hip	-900
velop	-901
▁ter	-902
大家	-903
▁Is	-904
一些	-905
▁somet	-906
内容	-907
ted	-908
▁trans	-909
▁run	-910
ten	-911
▁ins	-912
汽车	-913
az	-914
▁ser	-915
自己的	-916
消费	-917
ave	-918
ouse	-919
▁found	-920
▁med	-921
因此	-922
▁three	-923
▁around	-924
▁mem	-925
ives	-926
▁Trump	-927
但是	-928
ather	-929
▁here	-930
▁Se	-931
▁disc	-932
学院	-933
oot	-934
年的	-935
▁real	-936
cept	-937
ved	-938
不是	-939
▁exp	-940
▁used	-941
完成	-942
作用	-943
▁system	-944
时候	-945
cer	-946
con	-947
▁really	-948
ving	-949
ale	-950
经营	-951
一定	-952
了解	-953
▁support	-954
▁group	-955
▁mod	-956
ins	-957
pr	-958
▁cour	-959
ets	-960
▁That	-961
▁Cl	-962
ph	-963
▁public	-964
全球	-965
ng	-966
▁ret	-967
ton	-968
客户	-969
用户	-970
.[	-971
▁hand	-972
现在	-973
▁There	-974
▁spec	-975
或者	-976
有关	-977
ying	-978
oh	-979
%。	-980
所有	-981
计划	-982
ense	-983
▁great	-984
▁car	-985
个人	-986
▁ext	-987
irect	-988
▁fam	-989
▁cur	-990
发现	-991
alth	-992
发生	-993
min	-994
▁wom	-995
开展	-996
▁happ	-997
▁fr	-998
▁exper	-999
▁fact	-1000
,“	-1001
▁cap	-1002
智能	-1003
▁both	-1004
需求	-1005
一步	-1006
▁day	-1007
ular	-1008
患者	-1009
由于	-1010
▁find	-1011
▁read	-1012
uth	-1013
ices	-1014
....	-1015
▁lit	-1016
▁rep	-1017
▁det	-1018
▁conf	-1019
▁sl	-1020
提升	-1021
增加	-1022
保护	-1023
方法	-1024
ines	-1025
▁during	-1026
政策	-1027
酒店	-1028
功能	-1029
▁'	-1030
第二	-1031
ivers	-1032
ision	-1033
结构	-1034
▁big	-1035
▁So	-1036
▁serv	-1037
▁On	-1038
▁month	-1039
▁develop	-1040
ered	-1041
游戏	-1042
▁cre	-1043
教学	-1044
akes	-1045
▁told	-1046
▁person	-1047
▁iss	-1048
我国	-1049
▁since	-1050
▁follow	-1051
ash	-1052
负责	-1053
ared	-1054
▁week	-1055
控制	-1056
ically	-1057
支持	-1058
▁Ad	-1059
电子	-1060
the	-1061
都是	-1062
认为	-1063
med	-1064
ages	-1065
制造	-1066
孩子	-1067
▁Pro	-1068
▁war	-1069
▁few	-1070
ording	-1071
orth	-1072
aj	-1073
▁cent	-1074
今年	-1075
▁polit	-1076
▁leg	-1077
艺术	-1078
ene	-1079
get	-1080
ves	-1081
发布	-1082
未来	-1083
达到	-1084
▁Fr	-1085
积极	-1086
代表	-1087
综合	-1088
ex	-1089
▁expl	-1090
销售	-1091
ric	-1092
水平	-1093
ata	-1094
不能	-1095
anc	-1096
▁lot	-1097
▁belie	-1098
▁gener	-1099
der	-1100
iet	-1101
精神	-1102
▁too	-1103
上海	-1104
▁opp	-1105
▁fil	-1106
▁contin	-1107
bers	-1108
医院	-1109
▁requ	-1110
采用	-1111
chool	-1112
▁‘	-1113
ention	-1114
▁put	-1115
▁How	-1116
▁ref	-1117
▁resp	-1118
ness	-1119
▁cle	-1120
价格	-1121
▁At	-1122
ized	-1123
这种	-1124
ik	-1125
还是	-1126
▁another	-1127
uc	-1128
ute	-1129
▁something	-1130
▁cor	-1131
▁loc	-1132
万元	-1133
▁different	-1134
拥有	-1135
▁invest	-1136
ox	-1137
——	-1138
为了	-1139
▁inf	-1140
▁soc	-1141
这一	-1142
解决	-1143
实施	-1144
利用	-1145
▁art	-1146
▁commun	-1147
▁.	-1148
超过	-1149
ier	-1150
▁power	-1151
▁rele	-1152
责任	-1153
之一	-1154
ience	-1155
▁pass	-1156
▁life	-1157
▁plan	-1158
ody	-1159
▁head	-1160
ross	-1161
ned	-1162
▁vot	-1163
▁far	-1164
分析	-1165
▁met	-1166
▁Rep	-1167
▁camp	-1168
▁things	-1169
▁che	-1170
thing	-1171
view	-1172
▁poss	-1173
显示	-1174
arge	-1175
更多	-1176
iness	-1177
ants	-1178
son	-1179
▁ask	-1180
历史	-1181
基本	-1182
知识	-1183
▁US	-1184
形成	-1185
▁might	-1186
ize	-1187
▁dep	-1188
各种	-1189
▁each	-1190
ital	-1191
▁never	-1192
一般	-1193
▁child	-1194
白癜	-1195
▁Bl	-1196
白癜风	-1197
▁next	-1198
ield	-1199
▁mark	-1200
▁bus	-1201
▁adv	-1202
重点	-1203
▁second	-1204
▁quest	-1205
▁dem	-1206
ret	-1207
参加	-1208
▁come	-1209
▁got	-1210
▁best	-1211
比较	-1212
ient	-1213
▁open	-1214
传统	-1215
进入	-1216
▁allow	-1217
有效	-1218
rem	-1219
rat	-1220
)。	-1221
了一	-1222
ug	-1223
必须	-1224
申请	-1225
▁post	-1226
上的	-1227
▁percent	-1228
▁seem	-1229
ple	-1230
gram	-1231
自然	-1232
进一步	-1233
▁feel	-1234
持续	-1235
联网	-1236
▁pri	-1237
产生	-1238
▁home	-1239
随着	-1240
希望	-1241
▁direct	-1242
▁Z	-1243
交通	-1244
网站	-1245
cl	-1246
金融	-1247
orn	-1248
▁dist	-1249
ired	-1250
▁incre	-1251
条件	-1252
关系	-1253
chn	-1254
报告	-1255
▁contro	-1256
还有	-1257
新的	-1258
osed	-1259
▁result	-1260
建立	-1261
▁hard	-1262
来的	-1263
less	-1264
app	-1265
▁Ind	-1266
▁import	-1267
▁care	-1268
存在	-1269
▁Q	-1270
conom	-1271
▁million	-1272
记者	-1273
▁comple	-1274
特别	-1275
▁including	-1276
ately	-1277
▁place	-1278
ama	-1279
co	-1280
▁without	-1281
教师	-1282
▁inform	-1283
gy	-1284
▁She	-1285
▁hum	-1286
We	-1287
▁av	-1288
参与	-1289
▁Be	-1290
▁proble	-1291
收入	-1292
▁ide	-1293
▁top	-1294
疫情	-1295
系列	-1296
▁build	-1297
▁country	-1298
之后	-1299
oney	-1300
aim	-1301
ral	-1302
▁number	-1303
会议	-1304
地方	-1305
不仅	-1306
加强	-1307
用于	-1308
规模	-1309
riend	-1310
▁stand	-1311
关于	-1312
▁gl	-1313
▁four	-1314
ina	-1315
ably	-1316
ished	-1317
银行	-1318
介绍	-1319
▁let	-1320
line	-1321
而且	-1322
▁recent	-1323
▁partic	-1324
▁better	-1325
▁el	-1326
体系	-1327
▁Ph	-1328
成功	-1329
目标	-1330
ways	-1331
▁When	-1332
▁mov	-1333
ration	-1334
▁tri	-1335
规划	-1336
方案	-1337
人才	-1338
▁interest	-1339
▁season	-1340
▁less	-1341
如何	-1342
▁little	-1343
ling	-1344
▁turn	-1345
▁appro	-1346
▁beh	-1347
知道	-1348
ract	-1349
价值	-1350
实际	-1351
▁bro	-1352
▁called	-1353
ode	-1354
▁mil	-1355
ised	-1356
全面	-1357
▁case	-1358
之间	-1359
▁pop	-1360
ency	-1361
作品	-1362
▁ann	-1363
以下	-1364
be	-1365
这是	-1366
结合	-1367
▁dr	-1368
to	-1369
▁attack	-1370
▁rest	-1371
ger	-1372
专家	-1373
帮助	-1374
按照	-1375
那么	-1376
▁left	-1377
▁move	-1378
继续	-1379
行政	-1380
▁keep	-1381
职业	-1382
第三	-1383
uro	-1384
模式	-1385
提出	-1386
▁fun	-1387
▁didn	-1388
inal	-1389
▁full	-1390
ider	-1391
行为	-1392
比赛	-1393
ajor	-1394
▁main	-1395
ature	-1396
▁What	-1397
leg	-1398
▁test	-1399
▁prev	-1400
人们	-1401
▁program	-1402
直接	-1403
▁using	-1404
▁effect	-1405
▁American	-1406
▁pay	-1407
▁police	-1408
▁ear	-1409
虽然	-1410
成立	-1411
▁val	-1412
能源	-1413
▁news	-1414
一直	-1415
▁writ	-1416
同比	-1417
▁econom	-1418
医疗	-1419
▁Go	-1420
计算	-1421
▁Ob	-1422
ology	-1423
注意	-1424
▁data	-1425
培训	-1426
不会	-1427
▁form	-1428
▁pos	-1429
基金	-1430
▁win	-1431
现代	-1432
范围	-1433
rap	-1434
▁sit	-1435
的发展	-1436
ains	-1437
iving	-1438
ined	-1439
▁char	-1440
食品	-1441
uck	-1442
rence	-1443
ohn	-1444
▁school	-1445
ready	-1446
分别	-1447
▁list	-1448
▁small	-1449
导致	-1450
mit	-1451
▁level	-1452
领导	-1453
----	-1454
ploy	-1455
wit	-1456
共同	-1457
ided	-1458
促进	-1459
▁Can	-1460
ird	-1461
▁women	-1462
一起	-1463
▁eas	-1464
来说	-1465
▁process	-1466
reen	-1467
造成	-1468
▁change	-1469
的时候	-1470
电影	-1471
)、	-1472
的大	-1473
以来	-1474
▁prom	-1475
任何	-1476
委员	-1477
▁United	-1478
▁hist	-1479
▁president	-1480
ron	-1481
▁--	-1482
ians	-1483
▁company	-1484
▁current	-1485
研发	-1486
▁rece	-1487
时代	-1488
iversity	-1489
▁dri	-1490
应该	-1491
推动	-1492
used	-1493
取得	-1494
▁All	-1495
许多	-1496
期间	-1497
培养	-1498
生态	-1499
成本	-1500
▁already	-1501
保持	-1502
法律	-1503
▁ty	-1504
▁mat	-1505
ruct	-1506
▁Sp	-1507
▁,	-1508
推进	-1509
▁bre	-1510
▁why	-1511
▁Pl	-1512
▁Mar	-1513
▁unt	-1514
▁sol	-1515
保障	-1516
▁expect	-1517
▁later	-1518
▁official	-1519
▁money	-1520
▁business	-1521
▁techn	-1522
经验	-1523
效果	-1524
▁book	-1525
我们的	-1526
▁always	-1527
▁project	-1528
aign	-1529
▁job	-1530
stand	-1531
▁class	-1532
改革	-1533
It	-1534
▁bo	-1535
运动	-1536
▁One	-1537
交易	-1538
▁claim	-1539
ases	-1540
年来	-1541
▁thing	-1542
▁organ	-1543
aff	-1544
面积	-1545
ards	-1546
优势	-1547
努力	-1548
▁prof	-1549
▁information	-1550
▁design	-1551
▁talk	-1552
▁major	-1553
团队	-1554
▁story	-1555
lection	-1556
▁chang	-1557
▁health	-1558
▁able	-1559
资金	-1560
ead	-1561
rist	-1562
▁rese	-1563
▁Sc	-1564
▁past	-1565
iven	-1566
▁vis	-1567
ior	-1568
生物	-1569
urs	-1570
施工	-1571
▁free	-1572
ertain	-1573
机械	-1574
▁Pres	-1575
意见	-1576
经过	-1577
▁city	-1578
outh	-1579
▁John	-1580
▁Mr	-1581
原因	-1582
稳定	-1583
ural	-1584
here	-1585
ope	-1586
▁oper	-1587
▁Con	-1588
现场	-1589
▁away	-1590
表现	-1591
ption	-1592
执行	-1593
ury	-1594
得到	-1595
他的	-1596
urity	-1597
设施	-1598
uthor	-1599
acy	-1600
▁must	-1601
ample	-1602
竞争	-1603
▁important	-1604
▁happen	-1605
战略	-1606
员工	-1607
▁edit	-1608
空间	-1609
ney	-1610
ured	-1611
▁To	-1612
甚至	-1613
els	-1614
ending	-1615
制度	-1616
只有	-1617
▁kill	-1618
ission	-1619
▁doesn	-1620
▁pat	-1621
应当	-1622
▁old	-1623
性能	-1624
》,	-1625
▁least	-1626
▁var	-1627
▁sk	-1628
▁grow	-1629
▁est	-1630
ern	-1631
ER	-1632
决定	-1633
过程中	-1634
ides	-1635
风险	-1636
ained	-1637
▁cost	-1638
▁Or	-1639
ley	-1640
▁campaign	-1641
▁men	-1642
▁days	-1643
丰富	-1644
减少	-1645
坚持	-1646
▁const	-1647
更加	-1648
▁came	-1649
美元	-1650
▁tell	-1651
卫生	-1652
sc	-1653
结果	-1654
ccess	-1655
互联网	-1656
▁aff	-1657
side	-1658
下降	-1659
▁enough	-1660
▁Republic	-1661
关注	-1662
▁mar	-1663
ush	-1664
▁making	-1665
最后	-1666
▁view	-1667
▁family	-1668
▁kind	-1669
▁large	-1670
交流	-1671
oad	-1672
日本	-1673
自动	-1674
▁record	-1675
▁tax	-1676
▁friend	-1677
eral	-1678
▁Mc	-1679
性的	-1680
两个	-1681
▁elect	-1682
联合	-1683
▁polic	-1684
____	-1685
。“	-1686
ional	-1687
ator	-1688
变化	-1689
核心	-1690
▁No	-1691
▁=	-1692
事业	-1693
ering	-1694
ising	-1695
发展的	-1696
ror	-1697
▁vide	-1698
优秀	-1699
及时	-1700
pped	-1701
ane	-1702
ality	-1703
tt	-1704
bs	-1705
▁until	-1706
ified	-1707
▁political	-1708
ries	-1709
一次	-1710
ived	-1711
▁deal	-1712
ream	-1713
ony	-1714
音乐	-1715
体的	-1716
augh	-1717
▁working	-1718
家庭	-1719
ued	-1720
arent	-1721
▁Sy	-1722
▁Dem	-1723
▁May	-1724
区域	-1725
alf	-1726
▁deb	-1727
▁took	-1728
▁Ste	-1729
受到	-1730
▁line	-1731
▁ve	-1732
work	-1733
ister	-1734
容易	-1735
环保	-1736
aining	-1737
▁fore	-1738
ott	-1739
ware	-1740
▁air	-1741
iol	-1742
手机	-1743
▁intern	-1744
▁Russ	-1745
ocrat	-1746
▁es	-1747
ann	-1748
一种	-1749
疾病	-1750
▁become	-1751
▁President	-1752
加工	-1753
▁Euro	-1754
aps	-1755
污染	-1756
▁actually	-1757
by	-1758
考试	-1759
ember	-1760
▁mean	-1761
检查	-1762
▁fund	-1763
老师	-1764
eng	-1765
实验	-1766
▁former	-1767
朋友	-1768
▁Te	-1769
▁often	-1770
协会	-1771
商业	-1772
保证	-1773
毕业	-1774
▁according	-1775
▁prote	-1776
一样	-1777
▁won	-1778
IS	-1779
农业	-1780
不过	-1781
▁With	-1782
资产	-1783
除了	-1784
year	-1785
▁give	-1786
▁ever	-1787
ison	-1788
劳动	-1789
▁Am	-1790
most	-1791
ization	-1792
aring	-1793
oint	-1794
阶段	-1795
▁games	-1796
体育	-1797
▁return	-1798
▁human	-1799
来自	-1800
gin	-1801
正在	-1802
的高	-1803
wh	-1804
▁Col	-1805
▁bit	-1806
Th	-1807
检测	-1808
特色	-1809
位于	-1810
▁word	-1811
**	-1812
▁bas	-1813
▁order	-1814
▁times	-1815
▁X	-1816
▁name	-1817
措施	-1818
uture	-1819
主题	-1820
充分	-1821
icle	-1822
▁sever	-1823
▁dev	-1824
▁Br	-1825
操作	-1826
sh	-1827
正式	-1828
先进	-1829
降低	-1830
运营	-1831
▁perform	-1832
for	-1833
ither	-1834
看到	-1835
▁par	-1836
▁market	-1837
▁wr	-1838
媒体	-1839
注册	-1840
raft	-1841
指导	-1842
idd	-1843
▁night	-1844
▁fac	-1845
▁charac	-1846
广泛	-1847
▁sing	-1848
严重	-1849
有的	-1850
无法	-1851
▁doing	-1852
▁ra	-1853
▁After	-1854
成绩	-1855
▁lear	-1856
▁Im	-1857
▁players	-1858
rop	-1859
小时	-1860
接受	-1861
▁appear	-1862
▁Car	-1863
book	-1864
▁la	-1865
aken	-1866
iqu	-1867
ched	-1868
▁media	-1869
ium	-1870
▁today	-1871
规范	-1872
公开	-1873
▁i	-1874
▁early	-1875
▁本	-1876
br	-1877
”、	-1878
▁event	-1879
▁seen	-1880
▁having	-1881
enn	-1882
▁social	-1883
形式	-1884
mber	-1885
办公	-1886
▁Obama	-1887
▁crit	-1888
▁pot	-1889
idence	-1890
▁whether	-1891
▁several	-1892
▁children	-1893
artment	-1894
这里	-1895
▁/	-1896
▁meet	-1897
▁five	-1898
起来	-1899
是否	-1900
课程	-1901
▁press	-1902
▁Ex	-1903
▁control	-1904
une	-1905
做好	-1906
长期	-1907
带来	-1908
工艺	-1909
▁young	-1910
▁York	-1911
iously	-1912
▁went	-1913
ories	-1914
▁sure	-1915
▁prop	-1916
符合	-1917
▁milit	-1918
我的	-1919
▁Europe	-1920
▁Co	-1921
并且	-1922
▁likely	-1923
▁Not	-1924
▁members	-1925
调整	-1926
▁question	-1927
iver	-1928
▁equ	-1929
ands	-1930
▁occ	-1931
年度	-1932
▁eng	-1933
ots	-1934
完善	-1935
▁water	-1936
ats	-1937
▁certain	-1938
let	-1939
打造	-1940
才能	-1941
▁example	-1942
软件	-1943
的新	-1944
▁vers	-1945
ee	-1946
ball	-1947
▁States	-1948
▁arg	-1949
▁short	-1950
▁invol	-1951
其实	-1952
▁done	-1953
vert	-1954
▁success	-1955
▁ant	-1956
▁side	-1957
ended	-1958
▁&	-1959
▁along	-1960
▁#	-1961
rew	-1962
是在	-1963
ential	-1964
▁hour	-1965
制作	-1966
ially	-1967
此外	-1968
▁months	-1969
具体	-1970
运行	-1971
满足	-1972
▁]	-1973
empt	-1974
ague	-1975
创造	-1976
ster	-1977
▁State	-1978
▁sex	-1979
宣传	-1980
分钟	-1981
越来	-1982
落实	-1983
AT	-1984
lf	-1985
ubl	-1986
出了	-1987
明显	-1988
uff	-1989
ulation	-1990
消费者	-1991
imate	-1992
量的	-1993
▁within	-1994
▁desc	-1995
关键	-1996
▁course	-1997
越来越	-1998
nect	-1999
发挥	-2000
数字	-2001
ones	-2002
ourn	-2003
▁fight	-2004
ler	-2005
保险	-2006
urch	-2007
▁once	-2008
ald	-2009
▁among	-2010
建议	-2011
▁investig	-2012
oci	-2013
▁activ	-2014
▁future	-2015
快速	-2016
ortun	-2017
iting	-2018
上市	-2019
orld	-2020
▁Pol	-2021
▁concer	-2022
▁understand	-2023
▁possible	-2024
▁priv	-2025
▁cho	-2026
委员会	-2027
故事	-2028
▁product	-2029
ggest	-2030
▁author	-2031
▁problem	-2032
itive	-2033
体验	-2034
高的	-2035
调查	-2036
因素	-2037
▁viol	-2038
电视	-2039
▁means	-2040
方向	-2041
▁However	-2042
▁thought	-2043
▁House	-2044
▁known	-2045
gress	-2046
▁local	-2047
咨询	-2048
资格	-2049
▁avail	-2050
▁non	-2051
por	-2052
▁community	-2053
▁across	-2054
ivid	-2055
运输	-2056
▁据	-2057
inc	-2058
▁yet	-2059
▁Christ	-2060
通知	-2061
▁hold	-2062
压力	-2063
监督	-2064
▁University	-2065
确定	-2066
公共	-2067
是一个	-2068
▁suggest	-2069
不得	-2070
▁fail	-2071
今天	-2072
▁orig	-2073
▁reason	-2074
verage	-2075
back	-2076
▁makes	-2077
▁第	-2078
是一种	-2079
属于	-2080
合同	-2081
的重要	-2082
资料	-2083
▁Fl	-2084
iber	-2085
机会	-2086
ober	-2087
▁asked	-2088
基地	-2089
最终	-2090
ederal	-2091
▁reported	-2092
aged	-2093
开放	-2094
not	-2095
ensive	-2096
▁video	-2097
▁Sen	-2098
▁mus	-2099
主任	-2100
▁given	-2101
并不	-2102
机关	-2103
ows	-2104
生命	-2105
▁Min	-2106
▁others	-2107
▁strong	-2108
▁believe	-2109
▁While	-2110
简单	-2111
▁prob	-2112
中央	-2113
▁announ	-2114
▁Pr	-2115
▁getting	-2116
ances	-2117
iron	-2118
▁Democrat	-2119
化的	-2120
▁Cent	-2121
iety	-2122
股份	-2123
ored	-2124
针对	-2125
不可	-2126
▁ident	-2127
▁cut	-2128
不要	-2129
▁light	-2130
▁lim	-2131
组成	-2132
itions	-2133
▁sent	-2134
▁ca	-2135
▁Don	-2136
文件	-2137
喜欢	-2138
IN	-2139
你的	-2140
理念	-2141
物流	-2142
arm	-2143
程序	-2144
▁cond	-2145
化学	-2146
视频	-2147
▁sour	-2148
完全	-2149
ashing	-2150
urther	-2151
▁creat	-2152
aster	-2153
特点	-2154
任务	-2155
办法	-2156
从事	-2157
左右	-2158
▁net	-2159
ament	-2160
联系	-2161
use	-2162
▁bat	-2163
安装	-2164
▁national	-2165
AR	-2166
整个	-2167
▁started	-2168
公里	-2169
也有	-2170
▁indust	-2171
▁Comm	-2172
▁close	-2173
of	-2174
▁hig	-2175
思想	-2176
▁land	-2177
出的	-2178
orts	-2179
▁based	-2180
个月	-2181
ai	-2182
▁death	-2183
身体	-2184
举办	-2185
▁issue	-2186
▁America	-2187
▁available	-2188
▁account	-2189
▁history	-2190
▁love	-2191
确保	-2192
▁employ	-2193
报名	-2194
实践	-2195
▁following	-2196
▁ago	-2197
.,	-2198
reet	-2199
▁Sec	-2200
▁mom	-2201
▁series	-2202
中华	-2203
去年	-2204
selves	-2205
uly	-2206
▁comes	-2207
重大	-2208
之前	-2209
创业	-2210
成果	-2211
ability	-2212
▁party	-2213
的事	-2214
ON	-2215
空气	-2216
▁trying	-2217
儿童	-2218
普通	-2219
▁...	-2220
ument	-2221
绿色	-2222
▁Ne	-2223
从而	-2224
▁almost	-2225
utes	-2226
ination	-2227
良好的	-2228
witter	-2229
gether	-2230
目的	-2231
程度	-2232
▁together	-2233
hers	-2234
▁low	-2235
整体	-2236
此次	-2237
▁idea	-2238
▁Gr	-2239
▁foc	-2240
▁access	-2241
ief	-2242
reed	-2243
pro	-2244
新闻	-2245
正常	-2246
▁Man	-2247
▁commit	-2248
ilar	-2249
来看	-2250
的问题	-2251
itional	-2252
resent	-2253
ails	-2254
▁Bro	-2255
▁isn	-2256
▁film	-2257
物质	-2258
当地	-2259
▁Canad	-2260
▁clear	-2261
▁impro	-2262
改变	-2263
▁added	-2264
ef	-2265
▁pract	-2266
▁trad	-2267
统计	-2268
ED	-2269
AN	-2270
然后	-2271
▁Eng	-2272
的工作	-2273
though	-2274
);	-2275
▁Su	-2276
▁experience	-2277
ference	-2278
供应	-2279
▁Ger	-2280
也不	-2281
ged	-2282
就业	-2283
rael	-2284
过去	-2285
eb	-2286
ograp	-2287
▁half	-2288
my	-2289
ring	-2290
▁rul	-2291
ustom	-2292
?”	-2293
不同的	-2294
▁prot	-2295
unch	-2296
▁hit	-2297
明确	-2298
rict	-2299
▁six	-2300
温度	-2301
▁live	-2302
平方	-2303
▁App	-2304
AS	-2305
minist	-2306
▁looking	-2307
▁fav	-2308
ps	-2309
▁anal	-2310
▁War	-2311
就会	-2312
▁anything	-2313
inton	-2314
ividual	-2315
▁ris	-2316
▁complete	-2317
状态	-2318
▁Brit	-2319
nes	-2320
▁area	-2321
科研	-2322
▁miss	-2323
ert	-2324
▁saying	-2325
制定	-2326
▁Bar	-2327
安排	-2328
▁bill	-2329
oto	-2330
▁Res	-2331
aid	-2332
rug	-2333
▁present	-2334
raw	-2335
play	-2336
fic	-2337
都有	-2338
理论	-2339
教授	-2340
▁bene	-2341
▁North	-2342
▁vict	-2343
细胞	-2344
osp	-2345
怎么	-2346
▁bad	-2347
cially	-2348
▁court	-2349
▁Ab	-2350
移动	-2351
ien	-2352
uge	-2353
机制	-2354
wards	-2355
▁taken	-2356
▁compet	-2357
ators	-2358
▁Now	-2359
▁Ed	-2360
▁mor	-2361
深圳	-2362
意识	-2363
▁aut	-2364
▁behind	-2365
▁try	-2366
心理	-2367
▁z	-2368
▁Inst	-2369
”、“	-2370
▁entire	-2371
行动	-2372
真正	-2373
▁Just	-2374
▁er	-2375
▁:	-2376
考虑	-2377
▁near	-2378
▁security	-2379
▁military	-2380
▁Cal	-2381
▁Af	-2382
▁Dep	-2383
不少	-2384
▁mult	-2385
▁proper	-2386
▁face	-2387
off	-2388
社区	-2389
▁National	-2390
重要的	-2391
▁discuss	-2392
出口	-2393
yn	-2394
只是	-2395
▁threat	-2396
▁Har	-2397
▁tot	-2398
ris	-2399
▁World	-2400
aper	-2401
另外	-2402
▁rather	-2403
▁study	-2404
ales	-2405
▁single	-2406
▁publ	-2407
避免	-2408
ogle	-2409
▁individual	-2410
严格	-2411
▁Israel	-2412
irc	-2413
自身	-2414
▁Me	-2415
▁mind	-2416
▁quick	-2417
▁consider	-2418
最大	-2419
atic	-2420
▁wanted	-2421
▁policy	-2422
的情况	-2423
比如	-2424
香港	-2425
利润	-2426
金属	-2427
▁fall	-2428
深入	-2429
品质	-2430
ids	-2431
▁food	-2432
▁mess	-2433
▁Clinton	-2434
▁Dav	-2435
效率	-2436
lling	-2437
▁His	-2438
▁someone	-2439
par	-2440
lement	-2441
▁City	-2442
▁Aust	-2443
▁black	-2444
引起	-2445
▁sum	-2446
▁By	-2447
合理	-2448
后的	-2449
//	-2450
▁special	-2451
▁cult	-2452
▁My	-2453
ify	-2454
全部	-2455
举行	-2456
▁Ge	-2457
iam	-2458
▁bring	-2459
准备	-2460
▁redu	-2461
指出	-2462
▁These	-2463
▁compan	-2464
acebook	-2465
BC	-2466
▁《	-2467
▁key	-2468
成长	-2469
▁attempt	-2470
▁player	-2471
.)	-2472
▁comb	-2473
投入	-2474
go	-2475
农村	-2476
▁Some	-2477
增强	-2478
ply	-2479
尤其	-2480
rote	-2481
▁Gu	-2482
▁taking	-2483
viron	-2484
平均	-2485
elt	-2486
▁foot	-2487
ung	-2488
资本	-2489
olution	-2490
▁Part	-2491
电话	-2492
力量	-2493
ana	-2494
速度	-2495
ashington	-2496
意义	-2497
集中	-2498
经理	-2499
▁cou	-2500
为主	-2501
▁front	-2502
▁else	-2503
▁body	-2504
连续	-2505
山东	-2506
ches	-2507
▁probably	-2508
▁pret	-2509
优质	-2510
董事	-2511
公司的	-2512
af	-2513
当时	-2514
ES	-2515
同学	-2516
数量	-2517
进行了	-2518
▁space	-2519
▁research	-2520
十分	-2521
▁nothing	-2522
▁jo	-2523
面对	-2524
多个	-2525
hy	-2526
这样的	-2527
▁coming	-2528
ming	-2529
世纪	-2530
监管	-2531
▁sw	-2532
lier	-2533
cing	-2534
▁connect	-2535
智慧	-2536
书记	-2537
▁points	-2538
▁ce	-2539
▁Med	-2540
reme	-2541
▁however	-2542
sy	-2543
▁describ	-2544
over	-2545
升级	-2546
维护	-2547
▁similar	-2548
▁Washington	-2549
▁decision	-2550
采取	-2551
irl	-2552
各类	-2553
aces	-2554
最高	-2555
人类	-2556
▁signific	-2557
力的	-2558
▁sus	-2559
费用	-2560
▁imm	-2561
预计	-2562
▁Jan	-2563
ault	-2564
ully	-2565
▁coun	-2566
▁feat	-2567
▁mass	-2568
▁either	-2569
ww	-2570
mb	-2571
▁protect	-2572
amed	-2573
统一	-2574
▁exist	-2575
▁Do	-2576
lish	-2577
▁Intern	-2578
▁targ	-2579
▁rights	-2580
多的	-2581
▁conv	-2582
aul	-2583
半年	-2584
▁house	-2585
asing	-2586
土地	-2587
欢迎	-2588
商品	-2589
▁enc	-2590
▁wrote	-2591
英国	-2592
▁Ass	-2593
大型	-2594
now	-2595
▁service	-2596
▁create	-2597
▁chall	-2598
▁doc	-2599
▁wa	-2600
▁ban	-2601
▁third	-2602
▁further	-2603
sw	-2604
》(	-2605
▁fig	-2606
▁South	-2607
OR	-2608
广告	-2609
▁fire	-2610
加快	-2611
群众	-2612
▁Acc	-2613
。(	-2614
ape	-2615
皮肤	-2616
▁pick	-2617
%;	-2618
pping	-2619
▁compl	-2620
▁issues	-2621
ried	-2622
▁stop	-2623
觉得	-2624
ively	-2625
▁repl	-2626
▁一	-2627
obal	-2628
如此	-2629
▁begin	-2630
fer	-2631
广州	-2632
ran	-2633
▁field	-2634
贡献	-2635
▁step	-2636
▁China	-2637
企业的	-2638
▁relations	-2639
att	-2640
景区	-2641
://	-2642
报道	-2643
oon	-2644
▁super	-2645
ently	-2646
▁whole	-2647
▁)	-2648
▁cand	-2649
具备	-2650
改善	-2651
▁Pe	-2652
▁companies	-2653
▁federal	-2654
▁seems	-2655
▁tra	-2656
▁meas	-2657
测试	-2658
▁exec	-2659
pite	-2660
▁everything	-2661
pecially	-2662
ery	-2663
民族	-2664
公布	-2665
学科	-2666
iday	-2667
mm	-2668
ilt	-2669
lam	-2670
▁due	-2671
uation	-2672
▁watch	-2673
▁sound	-2674
技能	-2675
rodu	-2676
▁states	-2677
lu	-2678
生的	-2679
▁officials	-2680
▁released	-2681
amer	-2682
▁role	-2683
▁leaders	-2684
ivil	-2685
▁ey	-2686
▁room	-2687
head	-2688
原则	-2689
相对	-2690
▁dam	-2691
ender	-2692
中小	-2693
ibility	-2694
动力	-2695
展示	-2696
▁custom	-2697
▁lab	-2698
航空	-2699
▁students	-2700
▁self	-2701
广东	-2702
▁stri	-2703
▁tre	-2704
▁Dr	-2705
▁began	-2706
贸易	-2707
▁opt	-2708
▁statement	-2709
广大	-2710
▁En	-2711
》、	-2712
都会	-2713
vironment	-2714
特殊	-2715
▁position	-2716
语言	-2717
▁final	-2718
▁outside	-2719
表面	-2720
方便	-2721
▁matter	-2722
财政	-2723
首先	-2724
ades	-2725
▁ener	-2726
▁German	-2727
▁character	-2728
▁Will	-2729
......	-2730
证券	-2731
高速	-2732
每天	-2733
文明	-2734
医学	-2735
▁dou	-2736
支付	-2737
▁treat	-2738
▁development	-2739
lim	-2740
氧化	-2741
▁provide	-2742
sec	-2743
▁init	-2744
▁hope	-2745
▁himself	-2746
▁break	-2747
商务	-2748
like	-2749
▁stat	-2750
内的	-2751
In	-2752
ev	-2753
▁hours	-2754
▁represent	-2755
时期	-2756
▁gun	-2757
▁office	-2758
▁action	-2759
相比	-2760
▁itself	-2761
江苏	-2762
工作的	-2763
iod	-2764
▁amount	-2765
▁continue	-2766
一下	-2767
▁above	-2768
同比增长	-2769
▁News	-2770
ask	-2771
▁became	-2772
然而	-2773
购买	-2774
▁themselves	-2775
反应	-2776
加入	-2777
▁countries	-2778
ficult	-2779
reg	-2780
▁larg	-2781
▁address	-2782
有一	-2783
▁general	-2784
AP	-2785
困难	-2786
umb	-2787
依法	-2788
▁neg	-2789
▁specific	-2790
ili	-2791
arter	-2792
贷款	-2793
aced	-2794
吸引	-2795
恢复	-2796
▁Twitter	-2797
电池	-2798
▁wasn	-2799
▁simply	-2800
IT	-2801
月份	-2802
他们的	-2803
▁significant	-2804
ogn	-2805
负责人	-2806
▁interview	-2807
多种	-2808
重庆	-2809
推广	-2810
认证	-2811
说明	-2812
ournal	-2813
主义	-2814
▁running	-2815
岗位	-2816
me	-2817
▁true	-2818
oid	-2819
▁Mus	-2820
欧洲	-2821
▁administ	-2822
只要	-2823
angu	-2824
ote	-2825
▁ground	-2826
有些	-2827
▁profess	-2828
无论	-2829
▁evidence	-2830
▁difficult	-2831
▁rad	-2832
消息	-2833
▁agree	-2834
最大的	-2835
▁|	-2836
▁version	-2837
▁benef	-2838
位置	-2839
▁bar	-2840
评价	-2841
▁appe	-2842
▁needs	-2843
▁ste	-2844
▁drug	-2845
ift	-2846
right	-2847
▁groups	-2848
▁typ	-2849
iddle	-2850
证明	-2851
▁red	-2852
▁West	-2853
▁Facebook	-2854
道路	-2855
▁shows	-2856
▁everyone	-2857
▁Per	-2858
分为	-2859
eks	-2860
▁building	-2861
▁woman	-2862
▁dom	-2863
产品的	-2864
bo	-2865
▁respons	-2866
▁ball	-2867
▁inj	-2868
会计	-2869
▁lat	-2870
▁tem	-2871
认识	-2872
▁music	-2873
!”	-2874
▁common	-2875
▁needed	-2876
每个	-2877
每年	-2878
▁release	-2879
▁White	-2880
light	-2881
▁dest	-2882
St	-2883
感觉	-2884
结束	-2885
重视	-2886
▁below	-2887
▁exc	-2888
协议	-2889
机器	-2890
下的	-2891
地产	-2892
ribut	-2893
玻璃	-2894
各地	-2895
公路	-2896
它们	-2897
▁played	-2898
▁include	-2899
yle	-2900
==	-2901
▁saw	-2902
▁pretty	-2903
ript	-2904
将在	-2905
▁industry	-2906
也会	-2907
的小	-2908
大会	-2909
▁deep	-2910
季度	-2911
适合	-2912
▁Google	-2913
居民	-2914
▁Mich	-2915
ival	-2916
▁quite	-2917
游客	-2918
atur	-2919
▁candid	-2920
IC	-2921
▁mot	-2922
经常	-2923
先生	-2924
▁energy	-2925
▁Oct	-2926
▁white	-2927
▁gen	-2928
isc	-2929
理解	-2930
▁legal	-2931
▁playing	-2932
▁ap	-2933
东西	-2934
高校	-2935
认真	-2936
比例	-2937
▁sense	-2938
ager	-2939
▁late	-2940
▁charg	-2941
▁alleg	-2942
的影响	-2943
▁friends	-2944
▁phys	-2945
▁Cong	-2946
经历	-2947
▁mag	-2948
fully	-2949
OS	-2950
EN	-2951
节能	-2952
干部	-2953
政治	-2954
lt	-2955
不到	-2956
▁Sm	-2957
的话	-2958
▁这	-2959
趋势	-2960
它的	-2961
AC	-2962
▁billion	-2963
学术	-2964
逐渐	-2965
▁hom	-2966
▁lost	-2967
lev	-2968
例如	-2969
oring	-2970
▁instead	-2971
当然	-2972
▁especially	-2973
年轻	-2974
▁abs	-2975
▁host	-2976
距离	-2977
▁cop	-2978
osing	-2979
▁anim	-2980
推出	-2981
▁value	-2982
irt	-2983
time	-2984
where	-2985
istic	-2986
▁vote	-2987
青年	-2988
▁ple	-2989
承担	-2990
▁recently	-2991
▁election	-2992
▁forward	-2993
日常	-2994
▁+	-2995
▁March	-2996
相信	-2997
大量	-2998
▁track	-2999
成员	-3000
截至	-3001
▁Sept	-3002
▁weeks	-3003
▁More	-3004
本次	-3005
四川	-3006
症状	-3007
亿美元	-3008
▁suff	-3009
▁jud	-3010
样的	-3011
▁opportun	-3012
oe	-3013
▁changes	-3014
▁*	-3015
观众	-3016
ij	-3017
主管	-3018
epend	-3019
▁period	-3020
融合	-3021
平方米	-3022
▁中国	-3023
▁deter	-3024
▁Par	-3025
▁lo	-3026
▁site	-3027
一年	-3028
oke	-3029
hod	-3030
medi	-3031
登记	-3032
▁object	-3033
▁pain	-3034
知名	-3035
示范	-3036
▁longer	-3037
duct	-3038
铁路	-3039
的产品	-3040
▁Republican	-3041
▁htt	-3042
▁shoot	-3043
▁accept	-3044
lege	-3045
人士	-3046
工具	-3047
▁soon	-3048
▁Red	-3049
▁ep	-3050
▁economic	-3051
arc	-3052
▁decl	-3053
处于	-3054
▁Department	-3055
ners	-3056
大多	-3057
ached	-3058
irm	-3059
最佳	-3060
家长	-3061
ancial	-3062
车辆	-3063
▁block	-3064
▁pie	-3065
den	-3066
alt	-3067
▁moment	-3068
病毒	-3069
融资	-3070
等方面	-3071
另一	-3072
突破	-3073
职工	-3074
▁Here	-3075
▁Aug	-3076
浙江	-3077
通常	-3078
▁According	-3079
▁Off	-3080
称为	-3081
▁check	-3082
公告	-3083
▁tit	-3084
▁consum	-3085
食物	-3086
ky	-3087
博士	-3088
▁wrong	-3089
▁我	-3090
双方	-3091
ham	-3092
▁share	-3093
▁Syri	-3094
▁cred	-3095
cial	-3096
▁higher	-3097
key	-3098
▁June	-3099
▁educ	-3100
▁webs	-3101
▁online	-3102
现象	-3103
▁potential	-3104
▁relig	-3105
▁focus	-3106
lex	-3107
▁works	-3108
▁Act	-3109
onse	-3110
▁held	-3111
创作	-3112
▁led	-3113
▁circ	-3114
lear	-3115
法院	-3116
国务	-3117
aut	-3118
iding	-3119
▁di	-3120
ique	-3121
▁reve	-3122
ularly	-3123
overed	-3124
▁{	-3125
▁stay	-3126
内部	-3127
覆盖	-3128
▁walk	-3129
办理	-3130
▁pred	-3131
出来	-3132
▁parent	-3133
有机	-3134
相当	-3135
高度	-3136
告诉	-3137
▁stru	-3138
▁review	-3139
▁function	-3140
▁words	-3141
▁Des	-3142
植物	-3143
▁results	-3144
值得	-3145
cil	-3146
▁code	-3147
来源	-3148
营业	-3149
▁article	-3150
包装	-3151
fect	-3152
ole	-3153
▁laws	-3154
▁wind	-3155
计算机	-3156
▁rev	-3157
人工	-3158
▁Apr	-3159
▁sold	-3160
及其	-3161
污水	-3162
icro	-3163
扩大	-3164
▁July	-3165
涉及	-3166
▁contract	-3167
各项	-3168
优化	-3169
▁从	-3170
营养	-3171
的企业	-3172
▁total	-3173
▁applic	-3174
▁services	-3175
▁aud	-3176
挑战	-3177
uary	-3178
营销	-3179
在线	-3180
者的	-3181
omm	-3182
▁age	-3183
▁Hill	-3184
put	-3185
uel	-3186
ns	-3187
apan	-3188
iff	-3189
国务院	-3190
che	-3191
▁personal	-3192
用的	-3193
治理	-3194
▁minutes	-3195
asons	-3196
▁favor	-3197
简称	-3198
排名	-3199
eter	-3200
ule	-3201
▁anyone	-3202
州市	-3203
▁Mond	-3204
ients	-3205
anger	-3206
itution	-3207
探索	-3208
IP	-3209
▁upd	-3210
▁popular	-3211
▁Congress	-3212
▁rate	-3213
ilities	-3214
感染	-3215
▁Austral	-3216
▁den	-3217
▁prim	-3218
接触	-3219
na	-3220
▁@	-3221
如今	-3222
▁earlier	-3223
▁target	-3224
出版	-3225
haps	-3226
ateg	-3227
机场	-3228
▁answ	-3229
▁hy	-3230
bit	-3231
aging	-3232
评估	-3233
ude	-3234
▁dead	-3235
▁express	-3236
tee	-3237
党员	-3238
▁Cont	-3239
▁technology	-3240
▁necess	-3241
▁comput	-3242
▁vol	-3243
▁environment	-3244
▁created	-3245
▁goal	-3246
有着	-3247
▁expected	-3248
val	-3249
人口	-3250
的时间	-3251
▁respect	-3252
▁surpr	-3253
▁Ag	-3254
▁problems	-3255
成了	-3256
ends	-3257
▁received	-3258
那些	-3259
▁Em	-3260
▁<	-3261
He	-3262
德国	-3263
▁God	-3264
▁comment	-3265
▁scient	-3266
▁private	-3267
召开	-3268
相应	-3269
身份	-3270
▁base	-3271
复杂	-3272
▁anti	-3273
文章	-3274
太阳	-3275
日起	-3276
的主要	-3277
isl	-3278
▁Friday	-3279
成都	-3280
▁announced	-3281
著名	-3282
ray	-3283
▁increase	-3284
重新	-3285
分享	-3286
累计	-3287
▁port	-3288
三个	-3289
▁easy	-3290
▁ways	-3291
公园	-3292
自主	-3293
的方式	-3294
action	-3295
aterial	-3296
》、《	-3297
▁shot	-3298
给予	-3299
试验	-3300
▁pack	-3301
▁questions	-3302
▁Che	-3303
▁为	-3304
▁force	-3305
而是	-3306
▁langu	-3307
▁Cour	-3308
事件	-3309
近年来	-3310
记录	-3311
--------	-3312
",	-3313
OP	-3314
地址	-3315
之间的	-3316
atives	-3317
自由	-3318
启动	-3319
▁impact	-3320
有所	-3321
▁Pal	-3322
▁cannot	-3323
设置	-3324
▁Cor	-3325
hern	-3326
化工	-3327
类型	-3328
财务	-3329
iple	-3330
▁April	-3331
ael	-3332
aving	-3333
ples	-3334
▁Her	-3335
▁pur	-3336
▁involved	-3337
以后	-3338
掌握	-3339
itiz	-3340
▁Tues	-3341
▁Qu	-3342
hood	-3343
不足	-3344
▁div	-3345
▁type	-3346
下来	-3347
▁Count	-3348
▁Monday	-3349
法规	-3350
▁risk	-3351
▁David	-3352
主动	-3353
▁execut	-3354
▁speak	-3355
▁exact	-3356
▁nearly	-3357
▁Gl	-3358
▁El	-3359
▁et	-3360
连接	-3361
ops	-3362
▁Japan	-3363
▁sen	-3364
BA	-3365
▁Even	-3366
okes	-3367
电力	-3368
▁terror	-3369
▁civil	-3370
▁model	-3371
bor	-3372
ires	-3373
▁Tuesday	-3374
▁staff	-3375
百分	-3376
临床	-3377
▁relationship	-3378
ips	-3379
▁Russia	-3380
批准	-3381
防控	-3382
球队	-3383
鼓励	-3384
de	-3385
证书	-3386
▁cases	-3387
▁Geor	-3388
的基础	-3389
cast	-3390
▁original	-3391
▁content	-3392
正确	-3393
药物	-3394
ctor	-3395
▁capt	-3396
omb	-3397
▁inside	-3398
▁Americans	-3399
▁fans	-3400
动物	-3401
独立	-3402
lled	-3403
▁arrest	-3404
▁response	-3405
ze	-3406
▁Wed	-3407
宣布	-3408
享受	-3409
This	-3410
▁leave	-3411
▁international	-3412
当前	-3413
▁San	-3414
▁ur	-3415
▁Sch	-3416
推荐	-3417
▁phot	-3418
rel	-3419
迅速	-3420
发表	-3421
▁average	-3422
▁Paul	-3423
▁coll	-3424
atural	-3425
▁First	-3426
形象	-3427
状况	-3428
▁broad	-3429
发行	-3430
股东	-3431
专利	-3432
领先	-3433
▁reports	-3434
▁killed	-3435
ino	-3436
▁nation	-3437
习惯	-3438
▁heart	-3439
ging	-3440
▁living	-3441
▁users	-3442
限制	-3443
做到	-3444
微信	-3445
▁worth	-3446
节目	-3447
▁becom	-3448
▁worked	-3449
适应	-3450
,《	-3451
▁cell	-3452
真实	-3453
▁source	-3454
▁soft	-3455
▁Calif	-3456
训练	-3457
南省	-3458
▁cal	-3459
▁club	-3460
onst	-3461
ests	-3462
▁global	-3463
▁respond	-3464
素质	-3465
▁immedi	-3466
joy	-3467
▁chance	-3468
设立	-3469
▁Post	-3470
▁estab	-3471
▁subject	-3472
ites	-3473
▁Spe	-3474
再次	-3475
党委	-3476
运用	-3477
▁del	-3478
学会	-3479
▁director	-3480
面的	-3481
ees	-3482
▁takes	-3483
而言	-3484
▁Sund	-3485
招生	-3486
基于	-3487
更是	-3488
▁oil	-3489
▁obs	-3490
▁associ	-3491
性和	-3492
▁workers	-3493
▁published	-3494
rought	-3495
▁ability	-3496
传播	-3497
izing	-3498
上述	-3499
▁financial	-3500
ises	-3501
ological	-3502
▁tou	-3503
医药	-3504
▁price	-3505
同期	-3506
US	-3507
▁TV	-3508
▁terms	-3509
▁road	-3510
哪些	-3511
▁collect	-3512
ovember	-3513
沟通	-3514
预防	-3515
osition	-3516
近日	-3517
新型	-3518
协调	-3519
▁log	-3520
高级	-3521
上升	-3522
更多的	-3523
考生	-3524
▁weap	-3525
▁Feb	-3526
队伍	-3527
医生	-3528
▁phone	-3529
改造	-3530
▁defin	-3531
首次	-3532
风格	-3533
面临	-3534
▁squ	-3535
▁store	-3536
有了	-3537
▁decided	-3538
牛皮	-3539
unt	-3540
▁lack	-3541
▁January	-3542
少年	-3543
▁mid	-3544
".	-3545
ams	-3546
oud	-3547
追求	-3548
▁buy	-3549
▁mother	-3550
幸福	-3551
AM	-3552
几乎	-3553
▁emer	-3554
始终	-3555
万人	-3556
有人	-3557
转型	-3558
▁gave	-3559
Wh	-3560
下午	-3561
之外	-3562
▁girl	-3563
也可以	-3564
▁capital	-3565
▁September	-3566
分子	-3567
▁influ	-3568
合格	-3569
免费	-3570
垃圾	-3571
仍然	-3572
校园	-3573
▁happened	-3574
▁require	-3575
▁fem	-3576
只能	-3577
▁foreign	-3578
lin	-3579
ID	-3580
配合	-3581
body	-3582
英语	-3583
的技术	-3584
rain	-3585
▁Ear	-3586
引导	-3587
等等	-3588
clus	-3589
▁currently	-3590
based	-3591
通信	-3592
人民政府	-3593
市场的	-3594
大利	-3595
▁Wednes	-3596
采购	-3597
体现	-3598
表达	-3599
呈现	-3600
▁situation	-3601
▁offer	-3602
▁Islam	-3603
vertise	-3604
电动	-3605
▁November	-3606
▁lives	-3607
▁goes	-3608
▁Thurs	-3609
▁tal	-3610
▁whose	-3611
阅读	-3612
提供了	-3613
强度	-3614
▁Ang	-3615
ills	-3616
▁indic	-3617
▁particip	-3618
AL	-3619
aled	-3620
oved	-3621
▁member	-3622
▁Wednesday	-3623
▁Tw	-3624
ese	-3625
▁plans	-3626
▁material	-3627
▁meeting	-3628
ought	-3629
▁pict	-3630
发电	-3631
ET	-3632
▁bur	-3633
先后	-3634
▁arri	-3635
▁affect	-3636
年代	-3637
ruction	-3638
强的	-3639
EC	-3640
aur	-3641
▁method	-3642
order	-3643
▁根据	-3644
▁teams	-3645
rect	-3646
独特	-3647
▁bank	-3648
▁turned	-3649
▁recogn	-3650
▁network	-3651
想要	-3652
进步	-3653
ani	-3654
▁Thursday	-3655
必要	-3656
良好	-3657
指标	-3658
ety	-3659
Ph	-3660
▁Ke	-3661
商标	-3662
▁simple	-3663
厂家	-3664
▁introdu	-3665
apt	-3666
▁events	-3667
一体	-3668
▁cy	-3669
同样	-3670
▁Court	-3671
▁ill	-3672
▁performance	-3673
▁Je	-3674
▁areas	-3675
十二	-3676
▁couple	-3677
维修	-3678
女性	-3679
▁European	-3680
▁norm	-3681
”“	-3682
娱乐	-3683
塑料	-3684
▁Afric	-3685
▁career	-3686
牛皮癣	-3687
▁via	-3688
):	-3689
mon	-3690
▁email	-3691
公众	-3692
▁huge	-3693
▁regard	-3694
▁August	-3695
一定的	-3696
You	-3697
进口	-3698
▁approach	-3699
▁IS	-3700
aily	-3701
▁page	-3702
直播	-3703
让人	-3704
一定要	-3705
▁October	-3706
▁tool	-3707
租赁	-3708
▁Of	-3709
▁mis	-3710
ech	-3711
UR	-3712
oor	-3713
▁race	-3714
▁Canada	-3715
▁deli	-3716
▁administration	-3717
强调	-3718
办公室	-3719
▁felt	-3720
加大	-3721
rown	-3722
▁Californ	-3723
一切	-3724
实验室	-3725
高效	-3726
人民币	-3727
▁British	-3728
bl	-3729
▁numbers	-3730
load	-3731
▁Sw	-3732
▁quickly	-3733
▁Sunday	-3734
▁Mark	-3735
武汉	-3736
▁improve	-3737
招聘	-3738
实力	-3739
▁engine	-3740
▁victim	-3741
▁Int	-3742
▁round	-3743
oo	-3744
现实	-3745
尽管	-3746
▁hon	-3747
eed	-3748
▁Black	-3749
ructure	-3750
▁built	-3751
保温	-3752
iment	-3753
▁fre	-3754
ume	-3755
chie	-3756
▁loss	-3757
监测	-3758
本科	-3759
avy	-3760
▁Pat	-3761
往往	-3762
face	-3763
更好	-3764
▁dig	-3765
▁pull	-3766
▁website	-3767
充满	-3768
学位	-3769
▁economy	-3770
事实	-3771
利益	-3772
][	-3773
ights	-3774
▁thous	-3775
▁Then	-3776
▁production	-3777
▁boy	-3778
的服务	-3779
▁match	-3780
▁pers	-3781
父母	-3782
down	-3783
”.	-3784
文学	-3785
▁poll	-3786
▁father	-3787
为什么	-3788
天然	-3789
ha	-3790
▁trade	-3791
▁heard	-3792
特别是	-3793
葡萄	-3794
▁hop	-3795
GB	-3796
台湾	-3797
▁repe	-3798
▁allowed	-3799
atory	-3800
依据	-3801
将会	-3802
▁enjoy	-3803
在中国	-3804
▁travel	-3805
▁board	-3806
▁text	-3807
agement	-3808
作者	-3809
▁lower	-3810
定的	-3811
▁wide	-3812
▁secret	-3813
机的	-3814
cember	-3815
和国	-3816
▁legisl	-3817
▁spent	-3818
II	-3819
▁included	-3820
共享	-3821
令人	-3822
▁town	-3823
每一	-3824
▁}	-3825
布局	-3826
▁neigh	-3827
iction	-3828
▁California	-3829
冠军	-3830
▁wants	-3831
orters	-3832
▁cover	-3833
担任	-3834
igence	-3835
ences	-3836
突出	-3837
▁hands	-3838
estern	-3839
▁的	-3840
▁behav	-3841
uses	-3842
oph	-3843
环节	-3844
▁Russian	-3845
▁ord	-3846
uk	-3847
地位	-3848
▁UK	-3849
▁visit	-3850
ux	-3851
网上	-3852
的生活	-3853
▁Fin	-3854
▁Park	-3855
PS	-3856
gest	-3857
▁knew	-3858
force	-3859
ground	-3860
EO	-3861
anks	-3862
的同时	-3863
可能会	-3864
ession	-3865
对象	-3866
▁separ	-3867
主持	-3868
》。	-3869
逐步	-3870
最新	-3871
致力	-3872
▁Kore	-3873
▁gets	-3874
高等	-3875
▁tried	-3876
▁movement	-3877
赛季	-3878
ctions	-3879
▁perfect	-3880
元素	-3881
循环	-3882
驾驶	-3883
多年	-3884
aker	-3885
▁bi	-3886
房地产	-3887
hic	-3888
▁attention	-3889
真的	-3890
▁ens	-3891
是指	-3892
▁forces	-3893
▁cause	-3894
自治	-3895
全体	-3896
▁population	-3897
最近	-3898
行业的	-3899
________	-3900
▁December	-3901
强化	-3902
▁fear	-3903
ny	-3904
ened	-3905
▁From	-3906
▁particular	-3907
装置	-3908
流程	-3909
上涨	-3910
所在	-3911
▁bud	-3912
电脑	-3913
人数	-3914
股票	-3915
第四	-3916
field	-3917
自我	-3918
▁reach	-3919
▁growth	-3920
学生的	-3921
配套	-3922
ceed	-3923
常见	-3924
▁Net	-3925
cle	-3926
▁Street	-3927
▁brought	-3928
idents	-3929
▁looks	-3930
展览	-3931
许可	-3932
▁various	-3933
ibly	-3934
官方	-3935
arily	-3936
▁Senate	-3937
实行	-3938
raz	-3939
▁morning	-3940
▁previous	-3941
▁vo	-3942
ett	-3943
天津	-3944
hold	-3945
这么	-3946
损失	-3947
▁King	-3948
sequ	-3949
yond	-3950
解决方案	-3951
代理	-3952
▁link	-3953
日前	-3954
▁Char	-3955
如下	-3956
idered	-3957
undred	-3958
排放	-3959
本身	-3960
一家	-3961
至今	-3962
▁fair	-3963
▁mention	-3964
▁fell	-3965
▁training	-3966
完整	-3967
cies	-3968
的一个	-3969
尤其是	-3970
ening	-3971
▁India	-3972
▁image	-3973
装备	-3974
OT	-3975
▁rac	-3976
▁progress	-3977
alled	-3978
▁hot	-3979
▁demand	-3980
了一个	-3981
反映	-3982
丰富的	-3983
收集	-3984
海外	-3985
▁size	-3986
渠道	-3987
南京	-3988
理想	-3989
新技术	-3990
▁contact	-3991
ledge	-3992
你们	-3993
小组	-3994
大部分	-3995
▁citiz	-3996
▁公司	-3997
球员	-3998
▁leader	-3999
的地方	-4000
万吨	-4001
违法	-4002
ille	-4003
▁rules	-4004
建成	-4005
ondon	-4006
▁song	-4007
众多	-4008
▁Cons	-4009
ification	-4010
▁Times	-4011
▁search	-4012
▁Center	-4013
inks	-4014
▁Donald	-4015
▁liber	-4016
▁latest	-4017
ges	-4018
▁Tex	-4019
找到	-4020
围绕	-4021
▁Iran	-4022
使得	-4023
讨论	-4024
▁hor	-4025
come	-4026
里的	-4027
旅行	-4028
▁Jew	-4029
法国	-4030
支撑	-4031
▁coach	-4032
唯一	-4033
ecause	-4034
vent	-4035
多少	-4036
这次	-4037
▁ess	-4038
▁prep	-4039
▁strugg	-4040
即使	-4041
▁McC	-4042
主体	-4043
▁Sand	-4044
肯定	-4045
线上	-4046
▁fast	-4047
▁TH	-4048
方面的	-4049
▁Party	-4050
▁Up	-4051
idge	-4052
uments	-4053
▁independ	-4054
背景	-4055
▁Rom	-4056
▁Police	-4057
业绩	-4058
▁Satur	-4059
年龄	-4060
上午	-4061
▁features	-4062
▁talking	-4063
▁star	-4064
指数	-4065
作业	-4066
防止	-4067
会上	-4068
专项	-4069
变得	-4070
asc	-4071
▁speed	-4072
志愿	-4073
het	-4074
▁exam	-4075
▁addition	-4076
兴趣	-4077
▁language	-4078
曾经	-4079
院校	-4080
▁considered	-4081
▁wond	-4082
▁upon	-4083
新能源	-4084
蛋白	-4085
▁reb	-4086
▁medical	-4087
aries	-4088
成熟	-4089
▁County	-4090
犯罪	-4091
ari	-4092
高端	-4093
unk	-4094
▁und	-4095
申报	-4096
▁investigation	-4097
raq	-4098
石油	-4099
bed	-4100
等奖	-4101
产权	-4102
顺利	-4103
饮食	-4104
信用	-4105
CC	-4106
▁levels	-4107
BI	-4108
各个	-4109
▁Lab	-4110
上半年	-4111
就可以	-4112
▁conduct	-4113
imately	-4114
▁Tur	-4115
概念	-4116
▁critic	-4117
毕业生	-4118
ysis	-4119
装饰	-4120
uit	-4121
▁slow	-4122
uf	-4123
▁achie	-4124
》《	-4125
▁我们	-4126
▁doll	-4127
atform	-4128
制品	-4129
在于	-4130
▁Mor	-4131
▁sn	-4132
学历	-4133
Ch	-4134
招标	-4135
▁Soc	-4136
▁mach	-4137
的心	-4138
拍摄	-4139
▁card	-4140
▁sort	-4141
▁conserv	-4142
观察	-4143
istan	-4144
hel	-4145
▁Let	-4146
imin	-4147
▁Saturday	-4148
事项	-4149
手段	-4150
都在	-4151
AA	-4152
▁Sim	-4153
tr	-4154
▁paper	-4155
股份有限公司	-4156
pir	-4157
角度	-4158
▁box	-4159
▁spokes	-4160
一点	-4161
▁jobs	-4162
▁sexual	-4163
标志	-4164
igr	-4165
▁pen	-4166
准确	-4167
▁hear	-4168
参考	-4169
▁Play	-4170
影片	-4171
是由	-4172
场所	-4173
感受	-4174
相同	-4175
▁Muslim	-4176
▁safe	-4177
▁prior	-4178
▁London	-4179
▁increasing	-4180
▁systems	-4181
省级	-4182
urd	-4183
▁parents	-4184
室内	-4185
研究生	-4186
▁document	-4187
▁Michael	-4188
▁Read	-4189
▁sens	-4190
美丽	-4191
▁Iraq	-4192
▁written	-4193
ruary	-4194
▁draw	-4195
的一种	-4196
▁seven	-4197
委会	-4198
心的	-4199
ico	-4200
itch	-4201
If	-4202
▁seek	-4203
根本	-4204
▁prevent	-4205
可靠	-4206
▁Ser	-4207
会员	-4208
▁learn	-4209
▁regul	-4210
色的	-4211
新冠	-4212
▁son	-4213
room	-4214
rast	-4215
▁effort	-4216
mp	-4217
▁screen	-4218
▁serious	-4219
ources	-4220
▁Gener	-4221
人生	-4222
▁extreme	-4223
人体	-4224
二十	-4225
sych	-4226
anced	-4227
▁James	-4228
set	-4229
▁inn	-4230
rench	-4231
危险	-4232
▁Other	-4233
ining	-4234
▁completely	-4235
inese	-4236
共和国	-4237
▁surve	-4238
园区	-4239
▁eight	-4240
▁East	-4241
▁conc	-4242
全省	-4243
▁violence	-4244
不再	-4245
伙伴	-4246
意味	-4247
难以	-4248
▁despite	-4249
事故	-4250
pper	-4251
加上	-4252
▁Apple	-4253
现有	-4254
消防	-4255
▁obv	-4256
的要求	-4257
▁opportunity	-4258
reedom	-4259
▁range	-4260
▁claims	-4261
▁message	-4262
总体	-4263
详细	-4264
ishing	-4265
韩国	-4266
▁Most	-4267
联盟	-4268
▁majority	-4269
rences	-4270
▁particularly	-4271
大幅	-4272
▁climate	-4273
ospital	-4274
▁interesting	-4275
▁doub	-4276
投标	-4277
ma	-4278
▁Mon	-4279
iant	-4280
There	-4281
的好	-4282
利于	-4283
▁February	-4284
经典	-4285
▁Bill	-4286
▁attacks	-4287
▁extra	-4288
ibr	-4289
▁journal	-4290
eth	-4291
住房	-4292
百分点	-4293
FL	-4294
▁exactly	-4295
▁biggest	-4296
美的	-4297
▁guy	-4298
日至	-4299
obile	-4300
entially	-4301
▁answer	-4302
▁society	-4303
公安	-4304
解释	-4305
vertisement	-4306
度的	-4307
▁cross	-4308
▁Republicans	-4309
神经	-4310
▁defense	-4311
很大	-4312
领域的	-4313
▁aren	-4314
▁carry	-4315
整合	-4316
▁officers	-4317
utions	-4318
物理	-4319
▁paid	-4320
论文	-4321
▁modern	-4322
ension	-4323
lying	-4324
低于	-4325
创建	-4326
后来	-4327
总经理	-4328
案件	-4329
▁required	-4330
▁science	-4331
▁natural	-4332
品种	-4333
▁hundred	-4334
isions	-4335
致力于	-4336
EL	-4337
▁practice	-4338
▁except	-4339
▁quarter	-4340
uclear	-4341
▁gas	-4342
几个	-4343
美术	-4344
湖北	-4345
▁experien	-4346
▁products	-4347
将于	-4348
oses	-4349
▁Coun	-4350
分布	-4351
▁Why	-4352
▁Since	-4353
三年	-4354
专业的	-4355
情绪	-4356
硕士	-4357
▁histor	-4358
▁remain	-4359
更新	-4360
大多数	-4361
▁Jack	-4362
是什么	-4363
▁stories	-4364
国内外	-4365
hib	-4366
iers	-4367
▁如果	-4368
▁surv	-4369
AD	-4370
▁certainly	-4371
▁movie	-4372
▁middle	-4373
考核	-4374
免疫	-4375
效益	-4376
▁dro	-4377
▁Rec	-4378
▁prison	-4379
▁lay	-4380
应急	-4381
▁pan	-4382
的作用	-4383
▁communic	-4384
感到	-4385
▁looked	-4386
人在	-4387
▁table	-4388
aves	-4389
博物	-4390
▁finally	-4391
▁Dis	-4392
▁user	-4393
▁sometimes	-4394
个百分点	-4395
illed	-4396
大数据	-4397
并在	-4398
▁leading	-4399
erve	-4400
ida	-4401
▁aw	-4402
▁rout	-4403
依然	-4404
▁stuff	-4405
部署	-4406
▁showed	-4407
的热	-4408
公益	-4409
aly	-4410
▁convers	-4411
包含	-4412
▁described	-4413
▁summer	-4414
农民	-4415
▁imag	-4416
罗斯	-4417
akers	-4418
零售	-4419
ously	-4420
▁Democratic	-4421
▁changed	-4422
面向	-4423
物的	-4424
icks	-4425
特征	-4426
erc	-4427
快乐	-4428
▁details	-4429
▁quality	-4430
▁term	-4431
coin	-4432
▁ones	-4433
ara	-4434
▁starting	-4435
贫困	-4436
▁occur	-4437
▁blood	-4438
uing	-4439
▁ult	-4440
▁named	-4441
▁remains	-4442
病例	-4443
▁Chinese	-4444
▁giving	-4445
纤维	-4446
天气	-4447
▁comments	-4448
OM	-4449
▁intell	-4450
▁costs	-4451
规则	-4452
enge	-4453
▁saf	-4454
贯彻	-4455
omp	-4456
工作人员	-4457
▁Last	-4458
ban	-4459
▁Many	-4460
▁Rich	-4461
还要	-4462
全市	-4463
肺炎	-4464
▁chief	-4465
▁provided	-4466
力度	-4467
sp	-4468
做出	-4469
▁education	-4470
aught	-4471
▁William	-4472
▁region	-4473
▁fit	-4474
▁poor	-4475
收益	-4476
NA	-4477
▁danger	-4478
ago	-4479
▁Comp	-4480
固定	-4481
▁Every	-4482
多次	-4483
工厂	-4484
▁writing	-4485
▁三	-4486
一路	-4487
▁年	-4488
▁Bo	-4489
▁path	-4490
▁Texas	-4491
文字	-4492
inary	-4493
组合	-4494
zz	-4495
▁growing	-4496
生长	-4497
定位	-4498
相互	-4499
▁demonst	-4500
下面	-4501
▁ment	-4502
▁parts	-4503
▁continued	-4504
系统的	-4505
▁thinking	-4506
▁League	-4507
也在	-4508
oper	-4509
▁assist	-4510
邀请	-4511
▁fix	-4512
DP	-4513
吸收	-4514
我校	-4515
▁voters	-4516
arr	-4517
▁multiple	-4518
▁maintain	-4519
▁died	-4520
总结	-4521
技术的	-4522
▁purch	-4523
遇到	-4524
大赛	-4525
fort	-4526
河北	-4527
新增	-4528
▁ready	-4529
▁purp	-4530
▁write	-4531
投资者	-4532
itute	-4533
▁request	-4534
▁Super	-4535
▁Mart	-4536
▁culture	-4537
展开	-4538
感谢	-4539
▁wouldn	-4540
清洁	-4541
对外	-4542
ables	-4543
构成	-4544
iminal	-4545
刺激	-4546
▁Get	-4547
▁efforts	-4548
▁damage	-4549
▁http	-4550
▁increased	-4551
研究院	-4552
▁camer	-4553
认可	-4554
ford	-4555
▁mill	-4556
▁x	-4557
▁implement	-4558
专门	-4559
▁calls	-4560
mitted	-4561
▁spot	-4562
▁Over	-4563
▁reading	-4564
▁hous	-4565
▁二	-4566
▁Rober	-4567
含有	-4568
会有	-4569
oul	-4570
BS	-4571
▁file	-4572
构建	-4573
条例	-4574
▁cele	-4575
期待	-4576
indows	-4577
子的	-4578
检验	-4579
▁Indian	-4580
▁standard	-4581
iles	-4582
她的	-4583
arian	-4584
集体	-4585
▁perhaps	-4586
▁platform	-4587
▁Bel	-4588
至少	-4589
▁alone	-4590
▁而	-4591
▁(@	-4592
数据显示	-4593
▁Associ	-4594
▁speech	-4595
▁although	-4596
意味着	-4597
▁guys	-4598
态度	-4599
▁usually	-4600
▁unf	-4601
▁kids	-4602
▁towards	-4603
▁football	-4604
▁reality	-4605
anch	-4606
▁select	-4607
论坛	-4608
▁Serv	-4609
行的	-4610
授权	-4611
▁avoid	-4612
角色	-4613
rowd	-4614
表演	-4615
▁directly	-4616
信息化	-4617
来到	-4618
▁effects	-4619
icated	-4620
IA	-4621
ube	-4622
▁includes	-4623
▁beyond	-4624
ems	-4625
一条	-4626
▁consist	-4627
增速	-4628
▁student	-4629
▁scene	-4630
乡村	-4631
bur	-4632
ston	-4633
using	-4634
▁Sci	-4635
规定的	-4636
工资	-4637
agon	-4638
▁Add	-4639
电商	-4640
▁subst	-4641
reng	-4642
注重	-4643
不良	-4644
足球	-4645
▁complex	-4646
让我们	-4647
berg	-4648
▁couldn	-4649
亚洲	-4650
以前	-4651
▁Val	-4652
itor	-4653
▁center	-4654
▁throughout	-4655
您的	-4656
时的	-4657
▁Democrats	-4658
于是	-4659
别人	-4660
管道	-4661
▁tur	-4662
▁Well	-4663
▁Day	-4664
即可	-4665
▁challeng	-4666
ports	-4667
展现	-4668
高质量	-4669
yl	-4670
▁immediately	-4671
思考	-4672
控股	-4673
董事长	-4674
▁Star	-4675
玩家	-4676
教育部	-4677
主办	-4678
▁ver	-4679
▁wife	-4680
EM	-4681
寿命	-4682
主管部门	-4683
▁cat	-4684
生素	-4685
▁Air	-4686
岁的	-4687
正是	-4688
配置	-4689
▁rob	-4690
▁Green	-4691
满意	-4692
▁Minister	-4693
▁choice	-4694
▁clos	-4695
▁Our	-4696
补充	-4697
adem	-4698
版权	-4699
▁additional	-4700
▁il	-4701
大力	-4702
▁concept	-4703
▁safety	-4704
流量	-4705
▁researc	-4706
显著	-4707
期的	-4708
astic	-4709
声明	-4710
含量	-4711
▁agency	-4712
▁recomm	-4713
演员	-4714
▁corpor	-4715
图书	-4716
护理	-4717
▁epis	-4718
▁ten	-4719
▁blog	-4720
hest	-4721
▁gone	-4722
▁新	-4723
▁designed	-4724
omen	-4725
分类	-4726
两种	-4727
▁tro	-4728
▁software	-4729
生活中	-4730
▁sle	-4731
▁>	-4732
rupt	-4733
▁remember	-4734
roid	-4735
一名	-4736
▁piece	-4737
几年	-4738
▁cast	-4739
▁debate	-4740
房屋	-4741
aches	-4742
工商	-4743
▁officer	-4744
在这	-4745
wise	-4746
主要是	-4747
提前	-4748
市民	-4749
▁ahead	-4750
国有	-4751
aph	-4752
▁opin	-4753
种植	-4754
▁figure	-4755
▁brain	-4756
▁thousands	-4757
ampions	-4758
▁battle	-4759
ression	-4760
ilies	-4761
▁sell	-4762
深度	-4763
▁toward	-4764
摄影	-4765
▁Tor	-4766
irth	-4767
存储	-4768
诚信	-4769
▁第二	-4770
▁swe	-4771
men	-4772
▁letter	-4773
原料	-4774
▁moved	-4775
▁dog	-4776
▁French	-4777
测量	-4778
▁receive	-4779
▁pressure	-4780
自行	-4781
每一个	-4782
wood	-4783
联赛	-4784
yan	-4785
▁Like	-4786
表明	-4787
人民共和国	-4788
▁option	-4789
▁relative	-4790
▁counter	-4791
icient	-4792
ST	-4793
录取	-4794
十三	-4795
创意	-4796
中学	-4797
药品	-4798
数学	-4799
▁passed	-4800
atever	-4801
小学	-4802
博物馆	-4803
互动	-4804
出生	-4805
roy	-4806
airs	-4807
▁sil	-4808
国外	-4809
▁Cap	-4810
活性	-4811
▁目前	-4812
▁prec	-4813
混合	-4814
▁stage	-4815
高温	-4816
▁International	-4817
就能	-4818
▁La	-4819
华为	-4820
仪器	-4821
imum	-4822
urt	-4823
new	-4824
▁twe	-4825
其它	-4826
add	-4827
?"	-4828
更好的	-4829
▁property	-4830
成就	-4831
box	-4832
▁appears	-4833
itation	-4834
项目的	-4835
放在	-4836
▁ut	-4837
▁helped	-4838
▁launch	-4839
▁Ben	-4840
仪式	-4841
▁cris	-4842
成分	-4843
▁Ham	-4844
orks	-4845
▁clean	-4846
▁score	-4847
也就是	-4848
审查	-4849
▁alleged	-4850
▁English	-4851
▁rock	-4852
带动	-4853
海洋	-4854
▁disapp	-4855
中华人民共和国	-4856
信号	-4857
▁touch	-4858
▁meaning	-4859
地点	-4860
一致	-4861
▁suspect	-4862
olute	-4863
▁当	-4864
引进	-4865
▁tour	-4866
决赛	-4867
just	-4868
履行	-4869
▁nom	-4870
▁drive	-4871
ivity	-4872
死亡	-4873
▁park	-4874
▁organization	-4875
▁Tom	-4876
▁Although	-4877
▁conditions	-4878
引发	-4879
信心	-4880
ram	-4881
缺乏	-4882
▁reasons	-4883
▁date	-4884
more	-4885
▁budget	-4886
rief	-4887
危害	-4888
▁difference	-4889
人工智能	-4890
text	-4891
▁sat	-4892
▁fan	-4893
▁moving	-4894
▁device	-4895
拓展	-4896
多元	-4897
aughter	-4898
幼儿	-4899
认定	-4900
的情况下	-4901
天的	-4902
▁dark	-4903
▁deg	-4904
▁nuclear	-4905
▁ign	-4906
在此	-4907
ero	-4908
▁•	-4909
PP	-4910
安徽	-4911
的方法	-4912
▁happy	-4913
提交	-4914
ander	-4915
清楚	-4916
▁beginning	-4917
产量	-4918
共有	-4919
▁copy	-4920
▁maybe	-4921
基层	-4922
优惠	-4923
chan	-4924
▁encour	-4925
就像	-4926
▁High	-4927
▁nature	-4928
▁failed	-4929
lease	-4930
▁characters	-4931
事情	-4932
▁myself	-4933
。《	-4934
▁aim	-4935
之中	-4936
▁title	-4937
周边	-4938
和社会	-4939
▁college	-4940
名单	-4941
腐蚀	-4942
流动	-4943
带来的	-4944
离开	-4945
net	-4946
的前	-4947
印度	-4948
aint	-4949
▁computer	-4950
自动化	-4951
▁Ber	-4952
ocked	-4953
▁compared	-4954
▁century	-4955
▁Govern	-4956
制造业	-4957
▁Syria	-4958
▁league	-4959
较大	-4960
▁estim	-4961
气体	-4962
aling	-4963
占比	-4964
地球	-4965
主席	-4966
西安	-4967
俄罗斯	-4968
▁shown	-4969
作出	-4970
▁Ant	-4971
金额	-4972
▁citizens	-4973
▁Because	-4974
▁wall	-4975
的事情	-4976
苹果	-4977
使命	-4978
▁contribut	-4979
▁School	-4980
ufact	-4981
父亲	-4982
▁stra	-4983
▁refer	-4984
▁books	-4985
ource	-4986
▁Advertisement	-4987
优先	-4988
▁Reg	-4989
▁positive	-4990
的水	-4991
▁arch	-4992
▁limited	-4993
确认	-4994
▁conference	-4995
疫情防控	-4996
▁spending	-4997
TC	-4998
▁bal	-4999
广场	-5000
▁largest	-5001
扶贫	-5002
▁sche	-5003
股权	-5004
▁powerful	-5005
▁Smith	-5006
▁candidate	-5007
PC	-5008
研究所	-5009
回收	-5010
▁yes	-5011
▁disp	-5012
高中	-5013
▁中	-5014
venue	-5015
▁schools	-5016
▁forced	-5017
▁trust	-5018
▁Mac	-5019
十年	-5020
▁analysis	-5021
▁Met	-5022
igration	-5023
enty	-5024
的需求	-5025
▁presidential	-5026
▁band	-5027
▁necessary	-5028
人力	-5029
并没有	-5030
▁eyes	-5031
适用于	-5032
cul	-5033
▁Cr	-5034
▁Mex	-5035
有一个	-5036
▁Tod	-5037
▁executive	-5038
总是	-5039
▁People	-5040
▁note	-5041
自治区	-5042
小的	-5043
They	-5044
处罚	-5045
▁sal	-5046
一代	-5047
▁George	-5048
▁Rob	-5049
普遍	-5050
权利	-5051
场景	-5052
▁eventually	-5053
资讯	-5054
发病	-5055
▁Australia	-5056
▁Jer	-5057
很难	-5058
▁crowd	-5059
▁throw	-5060
As	-5061
年底	-5062
很多人	-5063
▁illeg	-5064
▁meant	-5065
▁origin	-5066
基础设施	-5067
大众	-5068
▁aware	-5069
妈妈	-5070
board	-5071
净利润	-5072
▁followed	-5073
▁mix	-5074
▁confir	-5075
▁Image	-5076
各级	-5077
涂料	-5078
街道	-5079
纪念	-5080
▁religious	-5081
▁feature	-5082
▁families	-5083
基因	-5084
平衡	-5085
▁Trans	-5086
白癜风的	-5087
▁correct	-5088
▁firm	-5089
ares	-5090
手术	-5091
思维	-5092
面试	-5093
▁Bre	-5094
And	-5095
orney	-5096
▁cool	-5097
▁bott	-5098
各大	-5099
一位	-5100
▁During	-5101
▁autom	-5102
类似	-5103
▁Art	-5104
▁physical	-5105
阳光	-5106
▁easily	-5107
▁pus	-5108
▁streng	-5109
加速	-5110
老年	-5111
人物	-5112
▁Germany	-5113
▁allows	-5114
ken	-5115
▁grad	-5116
餐饮	-5117
▁feed	-5118
梦想	-5119
一流	-5120
▁Brown	-5121
物联网	-5122
▁esc	-5123
以下简称	-5124
▁Angel	-5125
上了	-5126
权益	-5127
似乎	-5128
band	-5129
家的	-5130
osh	-5131
▁treatment	-5132
休闲	-5133
▁对于	-5134
▁actions	-5135
”(	-5136
▁draft	-5137
层次	-5138
ressed	-5139
通讯	-5140
▁susp	-5141
决策	-5142
la	-5143
▁yourself	-5144
是中国	-5145
最好	-5146
所谓	-5147
差异	-5148
encies	-5149
rated	-5150
SA	-5151
▁smart	-5152
▁Def	-5153
▁gives	-5154
影视	-5155
▁overall	-5156
▁appeared	-5157
▁Bu	-5158
时刻	-5159
新区	-5160
▁detail	-5161
审核	-5162
离子	-5163
添加	-5164
iring	-5165
北京市	-5166
craft	-5167
ki	-5168
▁signed	-5169
▁politics	-5170
dd	-5171
贵州	-5172
▁promot	-5173
颜色	-5174
引领	-5175
▁dise	-5176
▁display	-5177
OL	-5178
▁Stud	-5179
名称	-5180
得到了	-5181
▁har	-5182
rol	-5183
▁crime	-5184
▁ideas	-5185
▁senior	-5186
以上的	-5187
▁decades	-5188
▁central	-5189
培育	-5190
▁analy	-5191
会在	-5192
终于	-5193
司法	-5194
bum	-5195
长的	-5196
▁income	-5197
▁Christian	-5198
▁weapons	-5199
▁General	-5200
▁frequ	-5201
第一次	-5202
▁Gold	-5203
▁Union	-5204
母亲	-5205
是不	-5206
病情	-5207
▁nice	-5208
照片	-5209
▁ang	-5210
FC	-5211
riage	-5212
▁Earth	-5213
mar	-5214
▁Oh	-5215
▁credit	-5216
器的	-5217
转变	-5218
此前	-5219
▁uses	-5220
▁Franc	-5221
▁crisis	-5222
▁Flor	-5223
▁£	-5224
▁lif	-5225
应对	-5226
▁unique	-5227
合金	-5228
resh	-5229
同意	-5230
uty	-5231
change	-5232
ado	-5233
urance	-5234
▁Sa	-5235
义务	-5236
▁benefits	-5237
都不	-5238
搜索	-5239
aming	-5240
定期	-5241
▁Council	-5242
发动	-5243
复合	-5244
▁psych	-5245
时尚	-5246
▁developed	-5247
熟悉	-5248
▁Us	-5249
当中	-5250
大大	-5251
▁altern	-5252
随后	-5253
集成	-5254
对此	-5255
part	-5256
▁Arab	-5257
使用的	-5258
收购	-5259
▁noted	-5260
▁Alex	-5261
▁goals	-5262
ota	-5263
oti	-5264
净化	-5265
预测	-5266
▁conflic	-5267
寻找	-5268
▁projects	-5269
协助	-5270
▁rap	-5271
▁Scott	-5272
转化	-5273
ville	-5274
▁continues	-5275
▁door	-5276
▁mist	-5277
▁EU	-5278
▁sales	-5279
▁drop	-5280
▁Mag	-5281
itely	-5282
iny	-5283
的研究	-5284
销量	-5285
▁related	-5286
erved	-5287
办学	-5288
▁customers	-5289
▁individuals	-5290
▁beaut	-5291
▁challenge	-5292
▁intelligence	-5293
陕西	-5294
▁truth	-5295
▁charge	-5296
▁Internet	-5297
维生素	-5298
que	-5299
▁rates	-5300
▁Two	-5301
▁Mo	-5302
黄金	-5303
▁predict	-5304
带领	-5305
可以在	-5306
onents	-5307
▁sto	-5308
赛事	-5309
森林	-5310
▁previously	-5311
的不	-5312
和其他	-5313
▁apparent	-5314
能量	-5315
nown	-5316
▁reform	-5317
▁lic	-5318
的中	-5319
▁Law	-5320
深化	-5321
西部	-5322
实现了	-5323
▁peace	-5324
资质	-5325
更为	-5326
所得	-5327
▁manager	-5328
▁Follow	-5329
▁larger	-5330
ica	-5331
识别	-5332
▁Another	-5333
orter	-5334
▁Op	-5335
▁fully	-5336
很大的	-5337
采访	-5338
▁rule	-5339
愿意	-5340
▁expand	-5341
切实	-5342
IL	-5343
attle	-5344
相关的	-5345
▁lines	-5346
予以	-5347
▁successful	-5348
道德	-5349
▁web	-5350
地的	-5351
赢得	-5352
bon	-5353
▁advant	-5354
▁Yes	-5355
▁straight	-5356
院长	-5357
中国的	-5358
PA	-5359
ategy	-5360
记忆	-5361
的原因	-5362
▁measure	-5363
提醒	-5364
防治	-5365
冲击	-5366
▁emb	-5367
▁Also	-5368
驱动	-5369
前往	-5370
▁incident	-5371
对方	-5372
城镇	-5373
▁criminal	-5374
到的	-5375
▁clearly	-5376
湖南	-5377
▁brother	-5378
▁minor	-5379
▁highly	-5380
工程师	-5381
即将	-5382
sey	-5383
owers	-5384
▁primary	-5385
河南	-5386
试点	-5387
ounds	-5388
▁此外	-5389
预算	-5390
事务	-5391
一旦	-5392
便利	-5393
▁traff	-5394
▁Your	-5395
▁favorite	-5396
导演	-5397
▁attract	-5398
▁seemed	-5399
诊断	-5400
▁spread	-5401
爱情	-5402
监控	-5403
▁Mod	-5404
名为	-5405
职责	-5406
▁knowledge	-5407
▁resources	-5408
dom	-5409
▁programs	-5410
区的	-5411
永远	-5412
▁reached	-5413
antly	-5414
DA	-5415
巨大	-5416
律师	-5417
周期	-5418
oes	-5419
和谐	-5420
所有的	-5421
住宅	-5422
while	-5423
并不是	-5424
荣誉	-5425
国家级	-5426
secut	-5427
革命	-5428
透过	-5429
▁kept	-5430
earch	-5431
四个	-5432
▁save	-5433
都能	-5434
凭借	-5435
%、	-5436
问题的	-5437
爱的	-5438
养老	-5439
知识产权	-5440
▁greater	-5441
声音	-5442
近期	-5443
▁studies	-5444
fl	-5445
▁places	-5446
▁prem	-5447
▁determin	-5448
▁shooting	-5449
的市场	-5450
破坏	-5451
来了	-5452
▁rare	-5453
部件	-5454
wide	-5455
olic	-5456
两年	-5457
soft	-5458
▁spir	-5459
取消	-5460
levision	-5461
▁manufact	-5462
▁emot	-5463
范围内	-5464
深刻	-5465
▁Hillary	-5466
附近	-5467
▁feet	-5468
gen	-5469
机器人	-5470
▁send	-5471
ingly	-5472
▁color	-5473
车型	-5474
▁England	-5475
▁rise	-5476
▁regular	-5477
▁Mat	-5478
的专业	-5479
iders	-5480
▁Pre	-5481
lick	-5482
▁Inc	-5483
ING	-5484
▁knows	-5485
城乡	-5486
印刷	-5487
usion	-5488
▁sources	-5489
▁arm	-5490
▁owners	-5491
▁Bay	-5492
▁Sam	-5493
鉴定	-5494
参观	-5495
▁cities	-5496
rs	-5497
ocks	-5498
▁activity	-5499
则是	-5500
▁laun	-5501
▁Sun	-5502
iced	-5503
▁Chic	-5504
色彩	-5505
▁liter	-5506
roll	-5507
term	-5508
▁fighting	-5509
▁status	-5510
发布的	-5511
icit	-5512
保健	-5513
mark	-5514
演出	-5515
onent	-5516
▁options	-5517
▁organiz	-5518
佛教	-5519
inger	-5520
org	-5521
成立于	-5522
▁claimed	-5523
▁fine	-5524
▁calling	-5525
考察	-5526
▁pun	-5527
障碍	-5528
▁normal	-5529
有很多	-5530
▁Phil	-5531
高达	-5532
可见	-5533
不管	-5534
▁spend	-5535
委托	-5536
▁caused	-5537
miss	-5538
▁voice	-5539
▁uns	-5540
ya	-5541
荣获	-5542
mission	-5543
在一起	-5544
的设计	-5545
个性	-5546
情况下	-5547
总额	-5548
▁Port	-5549
血管	-5550
空调	-5551
▁integr	-5552
▁Bit	-5553
uman	-5554
策略	-5555
家具	-5556
防护	-5557
iled	-5558
调节	-5559
▁ended	-5560
污水处理	-5561
气候	-5562
精准	-5563
▁Florida	-5564
aith	-5565
▁reflect	-5566
编制	-5567
一段	-5568
或是	-5569
ifying	-5570
上市公司	-5571
▁researchers	-5572
ength	-5573
▁employees	-5574
网友	-5575
▁prices	-5576
▁Micro	-5577
征求	-5578
师生	-5579
理事	-5580
适当	-5581
形势	-5582
TV	-5583
执法	-5584
也将	-5585
▁names	-5586
▁adding	-5587
模型	-5588
呼吸	-5589
应用于	-5590
▁haven	-5591
参赛	-5592
▁vari	-5593
▁print	-5594
oles	-5595
景观	-5596
诉讼	-5597
他在	-5598
▁hospital	-5599
蔬菜	-5600
合法	-5601
▁pros	-5602
mittee	-5603
纷纷	-5604
itness	-5605
校长	-5606
▁Health	-5607
最好的	-5608
▁policies	-5609
▁virt	-5610
是一家	-5611
▁female	-5612
▁shut	-5613
立即	-5614
获取	-5615
ona	-5616
老人	-5617
▁trou	-5618
uana	-5619
▁France	-5620
▁happens	-5621
▁上	-5622
可是	-5623
▁plant	-5624
报考	-5625
▁traditional	-5626
利率	-5627
产业链	-5628
▁charges	-5629
伤害	-5630
还可以	-5631
▁concerns	-5632
学者	-5633
支出	-5634
iverse	-5635
补贴	-5636
▁Chicago	-5637
.’	-5638
ste	-5639
他说	-5640
▁raised	-5641
地理	-5642
▁该	-5643
货币	-5644
▁album	-5645
▁Lou	-5646
▁ele	-5647
▁wait	-5648
▁creating	-5649
▁supposed	-5650
对手	-5651
▁basic	-5652
▁authorities	-5653
一是	-5654
取得了	-5655
▁Mike	-5656
▁enem	-5657
修改	-5658
MA	-5659
www	-5660
ribution	-5661
占地	-5662
▁随着	-5663
▁funding	-5664
废水	-5665
▁minister	-5666
通道	-5667
▁jump	-5668
干燥	-5669
加盟	-5670
▁slight	-5671
出台	-5672
世界上	-5673
▁style	-5674
▁beat	-5675
▁commer	-5676
杭州	-5677
rian	-5678
▁acqu	-5679
出席	-5680
党的	-5681
上下	-5682
▁scen	-5683
▁patients	-5684
vere	-5685
▁absolute	-5686
▁AP	-5687
▁mur	-5688
承诺	-5689
▁lik	-5690
同学们	-5691
江西	-5692
see	-5693
最低	-5694
编辑	-5695
RE	-5696
有效的	-5697
签订	-5698
▁posted	-5699
▁behavior	-5700
▁freedom	-5701
▁leaving	-5702
▁station	-5703
▁seeing	-5704
▁impl	-5705
食用	-5706
▁green	-5707
▁cry	-5708
▁Att	-5709
▁agreement	-5710
明星	-5711
cher	-5712
会的	-5713
▁rank	-5714
▁grand	-5715
SP	-5716
aby	-5717
▁Del	-5718
特性	-5719
可持续	-5720
▁ir	-5721
监督管理	-5722
▁actual	-5723
开启	-5724
服务的	-5725
高于	-5726
维持	-5727
审批	-5728
三大	-5729
▁Rel	-5730
▁Mal	-5731
广西	-5732
允许	-5733
▁beg	-5734
多家	-5735
▁birth	-5736
转移	-5737
星期	-5738
▁eth	-5739
istry	-5740
ijuana	-5741
地下	-5742
▁Windows	-5743
版本	-5744
▁weekend	-5745
等级	-5746
▁Wall	-5747
acing	-5748
▁Sub	-5749
▁Ter	-5750
美好	-5751
▁offered	-5752
他人	-5753
不错	-5754
▁ensure	-5755
▁push	-5756
inn	-5757
的生产	-5758
大学生	-5759
大量的	-5760
▁mechan	-5761
▁eye	-5762
ae	-5763
▁Mil	-5764
青岛	-5765
▁propos	-5766
原理	-5767
▁vac	-5768
▁作为	-5769
▁Bush	-5770
精彩	-5771
▁mer	-5772
那个	-5773
或许	-5774
alse	-5775
▁Instead	-5776
▁revealed	-5777
▁Secret	-5778
上年	-5779
ava	-5780
东南	-5781
▁Johnson	-5782
▁weight	-5783
▁adop	-5784
▁application	-5785
高考	-5786
itude	-5787
▁Press	-5788
▁willing	-5789
调研	-5790
专注	-5791
东北	-5792
以为	-5793
竞争力	-5794
很好的	-5795
▁Once	-5796
地区的	-5797
较为	-5798
▁mostly	-5799
成的	-5800
▁gold	-5801
▁Big	-5802
▁有	-5803
观点	-5804
.'	-5805
山西	-5806
▁brief	-5807
违反	-5808
▁picture	-5809
情感	-5810
▁values	-5811
动作	-5812
▁install	-5813
出发	-5814
不知道	-5815
▁believed	-5816
▁Are	-5817
▁records	-5818
But	-5819
▁【	-5820
线路	-5821
接近	-5822
清洗	-5823
一场	-5824
▁enforce	-5825
”)	-5826
▁lawy	-5827
amb	-5828
igned	-5829
▁qual	-5830
inated	-5831
▁Ev	-5832
▁Liber	-5833
▁strategy	-5834
▁choose	-5835
福建	-5836
青少年	-5837
也要	-5838
▁cars	-5839
供应商	-5840
▁adult	-5841
突然	-5842
分别为	-5843
电气	-5844
====	-5845
传承	-5846
图片	-5847
▁arrested	-5848
▁benefit	-5849
▁parties	-5850
电器	-5851
▁learned	-5852
▁Pri	-5853
▁massive	-5854
旗下	-5855
放弃	-5856
到底	-5857
▁whatever	-5858
优良	-5859
▁street	-5860
▁Under	-5861
东方	-5862
团体	-5863
▁devices	-5864
轨道	-5865
出行	-5866
pri	-5867
▁fat	-5868
▁dire	-5869
城区	-5870
▁assault	-5871
▁wild	-5872
▁wonder	-5873
▁mount	-5874
▁II	-5875
cell	-5876
变成	-5877
▁asking	-5878
设备的	-5879
▁temper	-5880
判断	-5881
no	-5882
▁Palest	-5883
事业单位	-5884
▁negoti	-5885
point	-5886
一线	-5887
舞台	-5888
liament	-5889
rav	-5890
意大利	-5891
意思	-5892
▁feeling	-5893
▁enter	-5894
ties	-5895
旅客	-5896
▁Found	-5897
Re	-5898
视觉	-5899
机遇	-5900
oom	-5901
▁Commission	-5902
▁Sl	-5903
ented	-5904
预期	-5905
▁whom	-5906
下载	-5907
期限	-5908
▁Justice	-5909
居住	-5910
▁confirmed	-5911
▁influence	-5912
▁Mad	-5913
▁produced	-5914
oly	-5915
▁showing	-5916
▁Photo	-5917
▁border	-5918
一天	-5919
▁judge	-5920
▁Sanders	-5921
绝对	-5922
▁Great	-5923
▁lose	-5924
土壤	-5925
的主	-5926
典型	-5927
orial	-5928
▁wat	-5929
▁与	-5930
▁Security	-5931
▁provides	-5932
安全生产	-5933
▁mission	-5934
▁residents	-5935
iance	-5936
▁district	-5937
▁Committee	-5938
▁critical	-5939
有利于	-5940
▁Western	-5941
形成了	-5942
▁operations	-5943
▁stream	-5944
确诊	-5945
一批	-5946
确实	-5947
竞赛	-5948
▁celebr	-5949
estic	-5950
▁tend	-5951
witch	-5952
▁Ty	-5953
rows	-5954
▁dream	-5955
▁drink	-5956
停止	-5957
IM	-5958
而不	-5959
▁establish	-5960
▁Commun	-5961
▁Game	-5962
锈钢	-5963
▁Office	-5964
二是	-5965
aked	-5966
总部	-5967
查询	-5968
cont	-5969
▁debt	-5970
ags	-5971
▁teac	-5972
▁opposition	-5973
已有	-5974
▁produce	-5975
▁images	-5976
开拓	-5977
名字	-5978
▁Francis	-5979
▁cru	-5980
LE	-5981
▁runs	-5982
总裁	-5983
氛围	-5984
评审	-5985
地铁	-5986
改进	-5987
▁brand	-5988
压缩	-5989
较高	-5990
专用	-5991
如果你	-5992
▁Korea	-5993
▁AM	-5994
就要	-5995
实际上	-5996
失去	-5997
医师	-5998
错误	-5999
rey	-6000
动画	-6001
▁tick	-6002
社交	-6003
的规定	-6004
产生的	-6005
ords	-6006
黑色	-6007
中有	-6008
舒适	-6009
▁dollars	-6010
▁Ac	-6011
▁pattern	-6012
▁command	-6013
abor	-6014
同志	-6015
也能	-6016
十五	-6017
盈利	-6018
直到	-6019
流行	-6020
What	-6021
▁advoc	-6022
▁core	-6023
承包	-6024
动态	-6025
▁digital	-6026
打印	-6027
杂志	-6028
巨大的	-6029
ograph	-6030
下了	-6031
一级	-6032
▁etc	-6033
▁defe	-6034
服装	-6035
课堂	-6036
▁但	-6037
▁independent	-6038
▁Cup	-6039
ocr	-6040
年前	-6041
▁defend	-6042
▁Chris	-6043
vest	-6044
才是	-6045
mine	-6046
密切	-6047
支部	-6048
购物	-6049
收费	-6050
顾客	-6051
▁learning	-6052
发的	-6053
也许	-6054
▁vill	-6055
乐部	-6056
全力	-6057
ugg	-6058
橡胶	-6059
纪录	-6060
▁effective	-6061
适用	-6062
rial	-6063
bert	-6064
物业	-6065
家人	-6066
▁highest	-6067
▁solution	-6068
打开	-6069
▁interested	-6070
让我	-6071
产能	-6072
尽量	-6073
▁Any	-6074
养殖	-6075
icians	-6076
俱乐部	-6077
奖励	-6078
▁Bur	-6079
▁opening	-6080
▁Dist	-6081
TM	-6082
▁NFL	-6083
▁responsible	-6084
▁;	-6085
一带	-6086
▁offers	-6087
▁Those	-6088
红色	-6089
hicle	-6090
▁worse	-6091
▁section	-6092
ront	-6093
▁agreed	-6094
▁Cle	-6095
优点	-6096
提出了	-6097
一个人	-6098
▁investment	-6099
ipe	-6100
ription	-6101
▁hero	-6102
积累	-6103
▁train	-6104
That	-6105
广东省	-6106
▁Direct	-6107
▁chem	-6108
无人	-6109
脱贫	-6110
生存	-6111
英雄	-6112
芯片	-6113
▁daily	-6114
▁Mer	-6115
****	-6116
PU	-6117
▁trial	-6118
获得了	-6119
▁marriage	-6120
病人	-6121
▁replace	-6122
▁der	-6123
经济发展	-6124
pre	-6125
环境保护	-6126
▁restrict	-6127
▁PC	-6128
NN	-6129
▁Group	-6130
well	-6131
厂商	-6132
gency	-6133
▁television	-6134
▁theory	-6135
za	-6136
日在	-6137
的基础上	-6138
回到	-6139
多样	-6140
▁types	-6141
都要	-6142
▁See	-6143
▁occas	-6144
之路	-6145
无线	-6146
▁millions	-6147
illing	-6148
▁memory	-6149
ios	-6150
▁Hall	-6151
阿里	-6152
第一个	-6153
▁Vir	-6154
▁explained	-6155
▁chair	-6156
▁generally	-6157
▁Fox	-6158
关心	-6159
助力	-6160
装修	-6161
uries	-6162
▁proposed	-6163
aks	-6164
▁第三	-6165
SC	-6166
孩子们	-6167
输送	-6168
的外	-6169
▁heavy	-6170
▁Pet	-6171
▁opinion	-6172
▁Thom	-6173
▁map	-6174
▁detect	-6175
rad	-6176
尝试	-6177
▁join	-6178
▁basis	-6179
▁Today	-6180
▁protest	-6181
路线	-6182
Phone	-6183
▁miles	-6184
生活的	-6185
▁condition	-6186
▁reject	-6187
想到	-6188
日上午	-6189
带着	-6190
税务	-6191
▁kick	-6192
青春	-6193
▁Out	-6194
腾讯	-6195
纳入	-6196
▁photo	-6197
icip	-6198
▁Uk	-6199
▁Bank	-6200
▁partners	-6201
某些	-6202
里面	-6203
▁hundreds	-6204
晚上	-6205
ga	-6206
▁onto	-6207
coming	-6208
▁Robert	-6209
代码	-6210
▁Ver	-6211
▁Both	-6212
另一方面	-6213
▁male	-6214
▁vs	-6215
▁opened	-6216
azing	-6217
轻松	-6218
▁associated	-6219
全新	-6220
▁announce	-6221
传统的	-6222
▁becomes	-6223
eline	-6224
▁achieve	-6225
依托	-6226
▁Det	-6227
▁Wil	-6228
混凝	-6229
outhern	-6230
可以说	-6231
▁Institute	-6232
协同	-6233
▁advantage	-6234
用品	-6235
▁Islamic	-6236
rate	-6237
▁stre	-6238
加热	-6239
烈的	-6240
▁born	-6241
▁Jud	-6242
营造	-6243
▁understanding	-6244
▁destroy	-6245
发明	-6246
▁surround	-6247
▁load	-6248
▁coal	-6249
称号	-6250
PR	-6251
▁legislation	-6252
▁Prof	-6253
orthern	-6254
的能力	-6255
传递	-6256
的内容	-6257
物品	-6258
功率	-6259
蒙古	-6260
一系列	-6261
▁limit	-6262
产业发展	-6263
整理	-6264
▁obtain	-6265
还会	-6266
▁controvers	-6267
lied	-6268
不锈钢	-6269
人为	-6270
儿子	-6271
激光	-6272
▁ice	-6273
▁accused	-6274
周围	-6275
▁assum	-6276
▁illegal	-6277
cript	-6278
▁easier	-6279
档案	-6280
▁ship	-6281
▁management	-6282
是个	-6283
▁initial	-6284
▁professional	-6285
选手	-6286
和服务	-6287
▁neighbor	-6288
用人	-6289
做了	-6290
▁Canadian	-6291
第五	-6292
就在	-6293
收到	-6294
的学生	-6295
句话	-6296
现金	-6297
钢铁	-6298
▁becoming	-6299
飞机	-6300
很好	-6301
日下午	-6302
house	-6303
而在	-6304
iller	-6305
▁sleep	-6306
▁THE	-6307
截止	-6308
known	-6309
很快	-6310
足够	-6311
透露	-6312
▁Despite	-6313
▁unlike	-6314
OD	-6315
▁frame	-6316
odes	-6317
就有	-6318
▁double	-6319
变更	-6320
▁species	-6321
▁Jones	-6322
▁UN	-6323
村民	-6324
患者的	-6325
电机	-6326
▁camera	-6327
通用	-6328
▁spl	-6329
▁harm	-6330
lant	-6331
▁blue	-6332
ih	-6333
航天	-6334
身边	-6335
▁thus	-6336
公示	-6337
▁Jim	-6338
▁rat	-6339
▁served	-6340
春节	-6341
▁scientists	-6342
▁electric	-6343
▁Microsoft	-6344
▁shared	-6345
热情	-6346
小说	-6347
▁nine	-6348
works	-6349
▁winning	-6350
设有	-6351
asy	-6352
▁Inter	-6353
▁serve	-6354
本人	-6355
lands	-6356
▁ge	-6357
新兴	-6358
▁Sil	-6359
▁documents	-6360
名的	-6361
▁resist	-6362
itt	-6363
周年	-6364
▁audience	-6365
的基本	-6366
▁location	-6367
日的	-6368
▁department	-6369
无论是	-6370
ears	-6371
▁bed	-6372
▁reduce	-6373
传感	-6374
!!	-6375
▁victims	-6376
造型	-6377
处置	-6378
▁bottom	-6379
看来	-6380
已成为	-6381
▁strik	-6382
▁wealth	-6383
istics	-6384
▁Britain	-6385
期刊	-6386
人民法院	-6387
中医	-6388
▁solid	-6389
▁active	-6390
▁returned	-6391
▁negative	-6392
现代化	-6393
▁extremely	-6394
▁Leg	-6395
OC	-6396
▁Que	-6397
定制	-6398
▁incred	-6399
▁belief	-6400
▁communities	-6401
▁marijuana	-6402
每个人	-6403
ortunately	-6404
iful	-6405
规格	-6406
tered	-6407
性质	-6408
▁machine	-6409
▁Los	-6410
▁bomb	-6411
大约	-6412
建造	-6413
十八	-6414
场比赛	-6415
▁purpose	-6416
并非	-6417
民宿	-6418
▁amb	-6419
▁Please	-6420
IV	-6421
禁止	-6422
尺寸	-6423
吉林	-6424
gu	-6425
讲述	-6426
ghan	-6427
zen	-6428
▁Ken	-6429
▁Tim	-6430
▁victory	-6431
▁mobile	-6432
▁church	-6433
azon	-6434
▁ran	-6435
紧张	-6436
olf	-6437
▁FBI	-6438
▁Carol	-6439
到达	-6440
▁Israeli	-6441
情形	-6442
文物	-6443
▁notice	-6444
大连	-6445
精品	-6446
损害	-6447
出现了	-6448
how	-6449
▁existing	-6450
▁putting	-6451
从业	-6452
大师	-6453
▁Miss	-6454
lished	-6455
▁internet	-6456
▁episode	-6457
▁Sur	-6458
▁explain	-6459
▁Their	-6460
▁die	-6461
过滤	-6462
▁Tre	-6463
异常	-6464
一体的	-6465
▁unc	-6466
电源	-6467
▁watching	-6468
十四	-6469
▁comfort	-6470
▁instance	-6471
▁hearing	-6472
至于	-6473
ography	-6474
日子	-6475
山东省	-6476
民间	-6477
师范	-6478
▁今年	-6479
人力资源	-6480
清晰	-6481
所需	-6482
▁separate	-6483
▁conservative	-6484
atically	-6485
▁Jeff	-6486
▁pet	-6487
▁leadership	-6488
会长	-6489
▁notes	-6490
加拿	-6491
▁coverage	-6492
的管理	-6493
▁doubt	-6494
发放	-6495
下列	-6496
的相关	-6497
▁teach	-6498
转换	-6499
▁fresh	-6500
▁argument	-6501
完美	-6502
保留	-6503
hem	-6504
▁Yet	-6505
课题	-6506
▁committee	-6507
win	-6508
▁faith	-6509
▁Frank	-6510
ipp	-6511
▁definitely	-6512
风景	-6513
▁Church	-6514
acity	-6515
眼睛	-6516
ronic	-6517
在这里	-6518
官网	-6519
▁Good	-6520
早期	-6521
▁background	-6522
▁views	-6523
树立	-6524
财产	-6525
TA	-6526
攻坚	-6527
新冠肺炎	-6528
专题	-6529
▁supporters	-6530
▁purs	-6531
ario	-6532
访问	-6533
输入	-6534
▁Web	-6535
▁Fore	-6536
▁launched	-6537
书法	-6538
还能	-6539
▁issued	-6540
▁trend	-6541
iliar	-6542
独特的	-6543
▁dangerous	-6544
审计	-6545
人群	-6546
其次	-6547
▁floor	-6548
但在	-6549
感情	-6550
指挥	-6551
▁vehicle	-6552
首席	-6553
辅助	-6554
LED	-6555
助于	-6556
▁radio	-6557
风机	-6558
种类	-6559
活动的	-6560
细节	-6561
咖啡	-6562
担心	-6563
▁对	-6564
▁drugs	-6565
▁competition	-6566
gers	-6567
resp	-6568
▁suggested	-6569
翻译	-6570
MP	-6571
广播	-6572
▁Back	-6573
orrow	-6574
脂肪	-6575
▁direction	-6576
小编	-6577
▁sites	-6578
卫星	-6579
semb	-6580
▁max	-6581
ampionship	-6582
还在	-6583
▁refe	-6584
inct	-6585
▁north	-6586
全年	-6587
▁decade	-6588
担保	-6589
ctors	-6590
的精神	-6591
▁repeated	-6592
going	-6593
▁commercial	-6594
do	-6595
收录	-6596
▁spoke	-6597
ribe	-6598
相应的	-6599
用水	-6600
事实上	-6601
▁disease	-6602
anted	-6603
宗旨	-6604
▁traffic	-6605
▁structure	-6606
▁charged	-6607
分离	-6608
vention	-6609
▁novel	-6610
rick	-6611
遵守	-6612
▁Kh	-6613
▁worst	-6614
▁Ryan	-6615
▁contain	-6616
手续	-6617
▁transfer	-6618
▁stated	-6619
把握	-6620
▁labor	-6621
▁Association	-6622
光伏	-6623
走向	-6624
▁sett	-6625
▁Cur	-6626
评选	-6627
市政府	-6628
▁Richard	-6629
▁restaur	-6630
生产的	-6631
是以	-6632
ius	-6633
▁cards	-6634
案例	-6635
天下	-6636
热水	-6637
浓度	-6638
which	-6639
日期	-6640
▁hus	-6641
等地	-6642
▁ded	-6643
real	-6644
初步	-6645
外的	-6646
▁false	-6647
▁closed	-6648
▁Sup	-6649
▁react	-6650
▁Const	-6651
▁sun	-6652
标准化	-6653
▁driving	-6654
bing	-6655
kins	-6656
征求意见	-6657
披露	-6658
▁smaller	-6659
▁driver	-6660
云南	-6661
平时	-6662
▁Who	-6663
annel	-6664
业内	-6665
的使用	-6666
oyal	-6667
▁experiment	-6668
用途	-6669
公务	-6670
▁Fe	-6671
▁Jo	-6672
▁hack	-6673
过的	-6674
肿瘤	-6675
icy	-6676
▁task	-6677
▁discovered	-6678
▁telling	-6679
是因为	-6680
▁Ukrain	-6681
ulf	-6682
▁items	-6683
▁cash	-6684
随时	-6685
▁daughter	-6686
两人	-6687
▁plays	-6688
度假	-6689
▁Gree	-6690
▁Research	-6691
▁nor	-6692
andon	-6693
都可以	-6694
ada	-6695
oman	-6696
实体	-6697
密度	-6698
三角	-6699
andom	-6700
▁supported	-6701
▁Pak	-6702
规律	-6703
出来的	-6704
▁tools	-6705
ribute	-6706
传输	-6707
▁animals	-6708
将其	-6709
合成	-6710
平安	-6711
▁concerned	-6712
▁Sal	-6713
iling	-6714
硬件	-6715
间的	-6716
▁entirely	-6717
phone	-6718
大气	-6719
▁candidates	-6720
▁initi	-6721
??	-6722
▁gay	-6723
体检	-6724
效应	-6725
当年	-6726
进展	-6727
月底	-6728
RA	-6729
百姓	-6730
▁categ	-6731
▁Android	-6732
▁finding	-6733
ulated	-6734
纳税	-6735
▁transport	-6736
▁compar	-6737
国的	-6738
night	-6739
ibrary	-6740
很有	-6741
市委	-6742
之下	-6743
▁CEO	-6744
overy	-6745
不好	-6746
用来	-6747
▁older	-6748
▁aspect	-6749
▁businesses	-6750
gl	-6751
多项	-6752
▁testing	-6753
▁farm	-6754
▁largely	-6755
▁surface	-6756
▁Dec	-6757
equ	-6758
群体	-6759
▁Martin	-6760
▁GOP	-6761
也可	-6762
大小	-6763
陶瓷	-6764
▁please	-6765
olly	-6766
我们在	-6767
but	-6768
癫痫	-6769
电路	-6770
高铁	-6771
▁activities	-6772
专科	-6773
▁caught	-6774
▁exerc	-6775
▁wel	-6776
itz	-6777
危机	-6778
孩子的	-6779
国家的	-6780
长江	-6781
▁annual	-6782
分配	-6783
想法	-6784
整改	-6785
ady	-6786
不用	-6787
售后	-6788
▁Fire	-6789
▁Rock	-6790
ossible	-6791
非法	-6792
▁raise	-6793
国民	-6794
战争	-6795
被告	-6796
tery	-6797
▁strength	-6798
营收	-6799
▁requires	-6800
▁allowing	-6801
▁insurance	-6802
▁consequ	-6803
ait	-6804
▁believes	-6805
▁murder	-6806
▁Afghan	-6807
▁Team	-6808
ception	-6809
▁stock	-6810
▁context	-6811
奋斗	-6812
▁Step	-6813
▁为了	-6814
▁fuel	-6815
arant	-6816
udd	-6817
▁Jewish	-6818
日报	-6819
途径	-6820
izes	-6821
▁Nor	-6822
CH	-6823
▁generation	-6824
▁concern	-6825
描述	-6826
▁Louis	-6827
辐射	-6828
PD	-6829
▁strateg	-6830
区别	-6831
▁truly	-6832
同一	-6833
配备	-6834
释放	-6835
财富	-6836
▁Rem	-6837
各自	-6838
成为了	-6839
看看	-6840
bre	-6841
TS	-6842
有什么	-6843
▁afford	-6844
▁justice	-6845
ooking	-6846
节约	-6847
ancy	-6848
▁construction	-6849
▁highlight	-6850
发出	-6851
万平方米	-6852
混凝土	-6853
侵犯	-6854
灵活	-6855
▁African	-6856
▁decisions	-6857
inter	-6858
的信息	-6859
▁Palestin	-6860
ka	-6861
igrants	-6862
的数据	-6863
▁Joe	-6864
▁accur	-6865
发动机	-6866
响应	-6867
itable	-6868
车站	-6869
太阳能	-6870
否则	-6871
▁attend	-6872
第一时间	-6873
建设的	-6874
▁Virgin	-6875
观念	-6876
照明	-6877
定义	-6878
模块	-6879
osure	-6880
一份	-6881
血压	-6882
餐厅	-6883
▁Africa	-6884
为客户	-6885
外国	-6886
igan	-6887
水泥	-6888
人文	-6889
Sh	-6890
lor	-6891
▁holding	-6892
货物	-6893
日益	-6894
▁planning	-6895
邮箱	-6896
有关部门	-6897
有时	-6898
加坡	-6899
▁unit	-6900
▁spokesman	-6901
住宿	-6902
页面	-6903
▁refuge	-6904
cknow	-6905
▁presence	-6906
ula	-6907
icon	-6908
再生	-6909
▁witness	-6910
西南	-6911
anging	-6912
活力	-6913
URL	-6914
▁phil	-6915
▁Thomas	-6916
▁Angeles	-6917
公交	-6918
▁guess	-6919
▁scale	-6920
终端	-6921
园林	-6922
下滑	-6923
原来	-6924
尊重	-6925
身上	-6926
bour	-6927
收获	-6928
多年的	-6929
▁Jose	-6930
秘书	-6931
▁Ir	-6932
国家和	-6933
pective	-6934
本网站	-6935
anda	-6936
▁placed	-6937
发达	-6938
▁Time	-6939
▁san	-6940
千万	-6941
为您	-6942
怎样	-6943
▁rough	-6944
▁tim	-6945
方位	-6946
想象	-6947
▁sequ	-6948
ipped	-6949
工作中	-6950
的一些	-6951
▁waiting	-6952
谢谢	-6953
新疆	-6954
▁length	-6955
▁catch	-6956
nel	-6957
ications	-6958
Don	-6959
银屑	-6960
建立了	-6961
民营	-6962
▁enforcement	-6963
超级	-6964
印象	-6965
▁tells	-6966
▁deliver	-6967
vant	-6968
▁hasn	-6969
体制	-6970
著作	-6971
▁missing	-6972
vis	-6973
▁kid	-6974
辅导	-6975
部位	-6976
是最	-6977
▁update	-6978
▁Japanese	-6979
▁joined	-6980
formation	-6981
消毒	-6982
口罩	-6983
▁conflict	-6984
kin	-6985
总局	-6986
部长	-6987
温暖	-6988
▁injury	-6989
▁Government	-6990
ocracy	-6991
azine	-6992
▁introduced	-6993
由此	-6994
宝宝	-6995
rim	-6996
二级	-6997
▁mentioned	-6998
厚的	-6999
电子商务	-7000
血液	-7001
银屑病	-7002
前景	-7003
十九	-7004
▁cells	-7005
团结	-7006
▁abuse	-7007
ano	-7008
输出	-7009
▁interests	-7010
是有	-7011
▁Bern	-7012
▁providing	-7013
HL	-7014
阳市	-7015
辽宁	-7016
观看	-7017
▁newsp	-7018
udi	-7019
▁cancer	-7020
cks	-7021
女儿	-7022
cient	-7023
纺织	-7024
子公司	-7025
电信	-7026
▁established	-7027
也没有	-7028
▁recommend	-7029
合适	-7030
这也是	-7031
▁homes	-7032
▁sports	-7033
说的	-7034
起到	-7035
▁offensive	-7036
强大的	-7037
▁occup	-7038
健全	-7039
长时间	-7040
▁download	-7041
▁subsc	-7042
▁conversation	-7043
▁Jon	-7044
小区	-7045
▁removed	-7046
是对	-7047
▁fant	-7048
▁Mexico	-7049
▁eat	-7050
有哪些	-7051
▁banks	-7052
水利	-7053
▁assess	-7054
▁stopped	-7055
法人	-7056
▁Mont	-7057
aren	-7058
▁housing	-7059
评为	-7060
回复	-7061
iter	-7062
智能化	-7063
LC	-7064
钢管	-7065
▁Mary	-7066
先进的	-7067
教练	-7068
▁discussion	-7069
前的	-7070
普及	-7071
订单	-7072
▁fourth	-7073
奥运	-7074
涵盖	-7075
oted	-7076
上海市	-7077
▁measures	-7078
中文	-7079
onto	-7080
本地	-7081
owl	-7082
更有	-7083
资助	-7084
▁models	-7085
▁useful	-7086
▁Peter	-7087
▁obvious	-7088
明白	-7089
agn	-7090
▁Supreme	-7091
十一	-7092
▁south	-7093
融入	-7094
rees	-7095
在这个	-7096
▁operation	-7097
▁Sol	-7098
umn	-7099
▁identified	-7100
OU	-7101
高新技术	-7102
----------------	-7103
▁bul	-7104
season	-7105
该公司	-7106
ication	-7107
▁stick	-7108
isation	-7109
歌曲	-7110
画面	-7111
率为	-7112
家居	-7113
▁focused	-7114
▁girls	-7115
▁managed	-7116
▁setting	-7117
hi	-7118
ups	-7119
实用	-7120
奉献	-7121
▁由于	-7122
▁College	-7123
古代	-7124
verse	-7125
白斑	-7126
加拿大	-7127
江苏省	-7128
▁arrived	-7129
spe	-7130
内外	-7131
不够	-7132
place	-7133
不知	-7134
▁figures	-7135
白色	-7136
oms	-7137
▁conclud	-7138
真正的	-7139
慢慢	-7140
ading	-7141
思路	-7142
▁finished	-7143
不了	-7144
激励	-7145
outs	-7146
▁skills	-7147
▁acknow	-7148
本站	-7149
▁大	-7150
▁files	-7151
▁Army	-7152
ulate	-7153
▁committed	-7154
同步	-7155
▁veter	-7156
带来了	-7157
休息	-7158
▁Media	-7159
ola	-7160
▁MP	-7161
▁Put	-7162
rep	-7163
科技创新	-7164
修订	-7165
消化	-7166
▁appropri	-7167
▁Den	-7168
▁prefer	-7169
▁funds	-7170
常常	-7171
文化的	-7172
what	-7173
▁click	-7174
们的	-7175
▁keeping	-7176
rig	-7177
无疑	-7178
IG	-7179
▁hair	-7180
相结合	-7181
▁exchange	-7182
运作	-7183
▁Prime	-7184
利亚	-7185
达成	-7186
apped	-7187
民众	-7188
▁自	-7189
▁tough	-7190
更好地	-7191
▁identity	-7192
延长	-7193
▁owner	-7194
itutional	-7195
▁feels	-7196
严重的	-7197
接待	-7198
lo	-7199
激发	-7200
法定	-7201
透明	-7202
▁therefore	-7203
▁exclus	-7204
▁spirit	-7205
起了	-7206
读书	-7207
gar	-7208
每次	-7209
upp	-7210
产品质量	-7211
颗粒	-7212
▁earth	-7213
数的	-7214
▁partner	-7215
].	-7216
粉丝	-7217
mail	-7218
met	-7219
增加了	-7220
ocal	-7221
▁tweet	-7222
ania	-7223
wing	-7224
展会	-7225
▁https	-7226
▁otherwise	-7227
常见的	-7228
▁relatively	-7229
▁以	-7230
管理体系	-7231
▁micro	-7232
ller	-7233
▁trip	-7234
缓解	-7235
▁Lu	-7236
高速公路	-7237
▁survey	-7238
▁Public	-7239
▁Plan	-7240
康复	-7241
做的	-7242
的历史	-7243
充电	-7244
()	-7245
▁steps	-7246
虚拟	-7247
也就	-7248
AI	-7249
SS	-7250
▁connection	-7251
enses	-7252
提示	-7253
▁Camp	-7254
成交	-7255
▁photos	-7256
▁slightly	-7257
No	-7258
App	-7259
ighter	-7260
▁gender	-7261
很容易	-7262
合作伙伴	-7263
▁他	-7264
▁husband	-7265
ISO	-7266
’,	-7267
▁Open	-7268
各界	-7269
旨在	-7270
挖掘	-7271
市政	-7272
下去	-7273
rd	-7274
哪里	-7275
▁ST	-7276
健身	-7277
ils	-7278
十六	-7279
受理	-7280
▁transl	-7281
地质	-7282
▁Gal	-7283
消除	-7284
一方面	-7285
”;	-7286
▁Mur	-7287
的故事	-7288
▁protection	-7289
icide	-7290
供给	-7291
地面	-7292
ancing	-7293
▁defensive	-7294
不但	-7295
pm	-7296
容量	-7297
ynam	-7298
隔离	-7299
这就是	-7300
、“	-7301
ucky	-7302
▁depend	-7303
Is	-7304
今后	-7305
▁killing	-7306
uct	-7307
adium	-7308
▁gain	-7309
海南	-7310
修复	-7311
dden	-7312
西北	-7313
illa	-7314
回答	-7315
▁commission	-7316
的价格	-7317
副主任	-7318
stream	-7319
格局	-7320
prof	-7321
▁collection	-7322
makers	-7323
onym	-7324
▁weak	-7325
isf	-7326
同比下降	-7327
▁corner	-7328
▁suggests	-7329
▁strike	-7330
hens	-7331
停车	-7332
▁Amazon	-7333
hedul	-7334
▁elements	-7335
乙烯	-7336
还将	-7337
走进	-7338
▁taxes	-7339
冷却	-7340
▁mere	-7341
对其	-7342
的安全	-7343
▁fle	-7344
odies	-7345
▁PM	-7346
▁supply	-7347
隐患	-7348
▁aggress	-7349
收藏	-7350
eah	-7351
▁sust	-7352
▁Service	-7353
学家	-7354
▁Atlant	-7355
有序	-7356
rency	-7357
余人	-7358
▁circum	-7359
高压	-7360
西班	-7361
此同时	-7362
图书馆	-7363
交换	-7364
气象	-7365
uate	-7366
▁Bet	-7367
▁remind	-7368
SU	-7369
▁bigger	-7370
西班牙	-7371
▁award	-7372
▁window	-7373
▁Bitcoin	-7374
完成了	-7375
▁organizations	-7376
Le	-7377
▁speaking	-7378
▁dat	-7379
▁Secretary	-7380
长沙	-7381
▁talks	-7382
▁Lat	-7383
彻底	-7384
理由	-7385
此时	-7386
▁failure	-7387
▁sides	-7388
mas	-7389
▁amazing	-7390
▁Images	-7391
的应用	-7392
▁planned	-7393
中间	-7394
申请人	-7395
gypt	-7396
ini	-7397
▁happening	-7398
五年	-7399
生产线	-7400
▁mental	-7401
西亚	-7402
超越	-7403
▁Mars	-7404
▁Ve	-7405
▁Mos	-7406
When	-7407
的关键	-7408
斯特	-7409
▁familiar	-7410
run	-7411
▁pit	-7412
▁starts	-7413
uters	-7414
密封	-7415
▁crew	-7416
▁通过	-7417
▁hate	-7418
落地	-7419
不超过	-7420
▁scientific	-7421
▁thanks	-7422
▁immigration	-7423
提高了	-7424
oston	-7425
▁Mean	-7426
的环境	-7427
▁spect	-7428
外观	-7429
▁struct	-7430
策划	-7431
充分发挥	-7432
▁decide	-7433
eless	-7434
agues	-7435
▁guard	-7436
而不是	-7437
APP	-7438
龙头	-7439
▁饰	-7440
▁sudden	-7441
▁regist	-7442
出去	-7443
ocol	-7444
▁none	-7445
▁planet	-7446
胜利	-7447
IF	-7448
矛盾	-7449
树脂	-7450
遗传	-7451
itect	-7452
icial	-7453
▁Syrian	-7454
最为	-7455
保存	-7456
公平	-7457
▁army	-7458
服务业	-7459
▁carried	-7460
▁Social	-7461
gn	-7462
▁Watch	-7463
▁IN	-7464
卓越	-7465
▁Bob	-7466
stein	-7467
],	-7468
▁Ro	-7469
▁environmental	-7470
退休	-7471
imal	-7472
▁standards	-7473
克斯	-7474
▁wish	-7475
四川省	-7476
替代	-7477
OW	-7478
板块	-7479
锻炼	-7480
▁Rub	-7481
▁helping	-7482
市场上	-7483
▁script	-7484
一体化	-7485
份额	-7486
ici	-7487
毫米	-7488
用人单位	-7489
range	-7490
▁filed	-7491
▁Foundation	-7492
▁standing	-7493
▁que	-7494
信托	-7495
签约	-7496
▁Central	-7497
▁四	-7498
生态环境	-7499
▁domestic	-7500
整治	-7501
awn	-7502
▁multi	-7503
引擎	-7504
抑制	-7505
%)	-7506
是非常	-7507
▁Ari	-7508
▁markets	-7509
aven	-7510
合物	-7511
学校的	-7512
较低	-7513
探讨	-7514
统筹	-7515
新加坡	-7516
▁Toronto	-7517
少数	-7518
iser	-7519
▁revolution	-7520
lig	-7521
▁variety	-7522
线下	-7523
债务	-7524
意外	-7525
家里	-7526
新时代	-7527
各位	-7528
及以上	-7529
澳大利	-7530
科技有限公司	-7531
潜力	-7532
PM	-7533
▁neighborhood	-7534
▁AN	-7535
证据	-7536
icles	-7537
邮件	-7538
大陆	-7539
▁Free	-7540
可能是	-7541
澳大利亚	-7542
疫苗	-7543
▁beer	-7544
▁academ	-7545
!"	-7546
erous	-7547
▁dropped	-7548
Americ	-7549
发言	-7550
尚未	-7551
传感器	-7552
人才培养	-7553
的原则	-7554
cel	-7555
ologies	-7556
▁seconds	-7557
常规	-7558
指定	-7559
▁Dan	-7560
读者	-7561
补助	-7562
aded	-7563
▁Jes	-7564
▁Lee	-7565
债券	-7566
iation	-7567
诸多	-7568
▁professor	-7569
授予	-7570
▁vul	-7571
▁interact	-7572
▁sch	-7573
▁tack	-7574
▁territ	-7575
▁cuts	-7576
遗产	-7577
重量	-7578
▁Journal	-7579
水果	-7580
▁Before	-7581
依照	-7582
▁impossible	-7583
▁accounts	-7584
我市	-7585
inux	-7586
▁increasingly	-7587
它是	-7588
机组	-7589
水的	-7590
▁tests	-7591
让你	-7592
▁balance	-7593
▁pair	-7594
ss	-7595
和平	-7596
对接	-7597
▁votes	-7598
▁turns	-7599
依靠	-7600
煤炭	-7601
▁cold	-7602
三分	-7603
▁degree	-7604
迎来	-7605
▁union	-7606
aine	-7607
财经	-7608
▁operating	-7609
▁Power	-7610
开设	-7611
进程	-7612
▁settle	-7613
▁alternative	-7614
iot	-7615
转让	-7616
▁philos	-7617
▁possibly	-7618
方的	-7619
选用	-7620
美食	-7621
▁rich	-7622
搭配	-7623
▁appre	-7624
rastructure	-7625
▁developers	-7626
ruit	-7627
英文	-7628
研究中心	-7629
刚刚	-7630
hicles	-7631
兄弟	-7632
▁Mel	-7633
多年来	-7634
故障	-7635
▁worry	-7636
传染	-7637
景点	-7638
▁Steve	-7639
地震	-7640
▁lived	-7641
做法	-7642
▁fellow	-7643
持有	-7644
参加了	-7645
年初	-7646
实在	-7647
签署	-7648
▁univers	-7649
icted	-7650
▁Cru	-7651
▁Second	-7652
▁losing	-7653
苏州	-7654
▁Sing	-7655
成效	-7656
▁Whe	-7657
局长	-7658
▁USA	-7659
▁Egypt	-7660
▁agencies	-7661
▁District	-7662
▁Chief	-7663
毕竟	-7664
▁Mass	-7665
携手	-7666
▁apply	-7667
▁colle	-7668
越南	-7669
科学家	-7670
▁humans	-7671
For	-7672
▁server	-7673
入选	-7674
新生	-7675
▁Carolina	-7676
▁changing	-7677
数字化	-7678
▁apparently	-7679
▁schedul	-7680
▁princ	-7681
▁twice	-7682
▁honest	-7683
去年同期	-7684
形态	-7685
rie	-7686
▁RE	-7687
▁innov	-7688
with	-7689
影像	-7690
ashed	-7691
▁ultimately	-7692
▁Mem	-7693
ores	-7694
快递	-7695
state	-7696
ansion	-7697
条件的	-7698
舞蹈	-7699
arks	-7700
心里	-7701
▁healthy	-7702
▁Middle	-7703
当天	-7704
▁Top	-7705
▁Federal	-7706
信任	-7707
的治疗	-7708
尽快	-7709
hab	-7710
▁sounds	-7711
▁soldiers	-7712
分泌	-7713
车的	-7714
▁Spr	-7715
备案	-7716
欣赏	-7717
家电	-7718
▁closer	-7719
ipment	-7720
▁units	-7721
ION	-7722
▁Sign	-7723
▁religion	-7724
▁paying	-7725
部的	-7726
▁corporate	-7727
税收	-7728
▁Techn	-7729
acks	-7730
▁Ze	-7731
秉承	-7732
同时也	-7733
▁expensive	-7734
▁yards	-7735
▁ath	-7736
▁possibility	-7737
导向	-7738
▁writer	-7739
原本	-7740
▁absolutely	-7741
这位	-7742
cious	-7743
▁developing	-7744
▁sea	-7745
▁skin	-7746
▁Sant	-7747
提供的	-7748
▁Boston	-7749
初心	-7750
最多	-7751
着力	-7752
▁experts	-7753
婴儿	-7754
▁vir	-7755
▁Phot	-7756
▁fundament	-7757
大道	-7758
引入	-7759
▁authority	-7760
▁Williams	-7761
roud	-7762
▁solar	-7763
的中国	-7764
▁deploy	-7765
▁vast	-7766
▁beautiful	-7767
▁heat	-7768
起重	-7769
专业技术	-7770
Tr	-7771
▁flight	-7772
▁applications	-7773
coh	-7774
开工	-7775
县级	-7776
▁本次	-7777
战斗	-7778
的机会	-7779
▁regarding	-7780
▁seeking	-7781
拒绝	-7782
视为	-7783
▁Book	-7784
那里	-7785
atures	-7786
▁Though	-7787
消耗	-7788
搭建	-7789
在全国	-7790
焊接	-7791
坚定	-7792
och	-7793
队的	-7794
提到	-7795
公民	-7796
经费	-7797
▁Francisco	-7798
材质	-7799
▁adjust	-7800
影响力	-7801
物资	-7802
▁apart	-7803
isted	-7804
osen	-7805
useum	-7806
▁imagine	-7807
必然	-7808
小型	-7809
▁tast	-7810
供应链	-7811
related	-7812
apers	-7813
郑州	-7814
obe	-7815
用地	-7816
ENT	-7817
▁Matt	-7818
的通知	-7819
ayer	-7820
▁animal	-7821
发作	-7822
▁mut	-7823
▁capacity	-7824
的目标	-7825
▁sitting	-7826
陆续	-7827
燃料	-7828
pire	-7829
助学	-7830
营业收入	-7831
▁vision	-7832
▁internal	-7833
聚氨	-7834
宗教	-7835
▁gar	-7836
▁pil	-7837
月的	-7838
刑事	-7839
每日	-7840
河南省	-7841
▁Rad	-7842
粮食	-7843
▁elections	-7844
▁university	-7845
人大	-7846
lies	-7847
成年	-7848
代谢	-7849
▁trail	-7850
今日	-7851
▁Hist	-7852
▁River	-7853
当代	-7854
▁responsibility	-7855
▁Tra	-7856
微博	-7857
打击	-7858
▁appoint	-7859
▁covered	-7860
uster	-7861
反馈	-7862
enced	-7863
有助于	-7864
▁Virginia	-7865
本书	-7866
under	-7867
▁Each	-7868
共计	-7869
中小企业	-7870
社会主义	-7871
▁Show	-7872
My	-7873
▁unless	-7874
饮料	-7875
污泥	-7876
家族	-7877
季节	-7878
期内	-7879
eder	-7880
▁arms	-7881
▁Cath	-7882
▁famous	-7883
▁Paris	-7884
糖尿	-7885
▁attorney	-7886
▁NAS	-7887
oving	-7888
▁error	-7889
评论	-7890
全方位	-7891
sen	-7892
民生	-7893
等待	-7894
均匀	-7895
更换	-7896
另一个	-7897
▁fol	-7898
紧密	-7899
mes	-7900
权威	-7901
▁surprise	-7902
▁Conserv	-7903
▁earn	-7904
▁Ms	-7905
▁convention	-7906
失败	-7907
城市的	-7908
▁forms	-7909
反复	-7910
▁teen	-7911
▁Only	-7912
建材	-7913
不久	-7914
队员	-7915
ias	-7916
▁odd	-7917
porary	-7918
▁presented	-7919
点击	-7920
▁Still	-7921
▁instit	-7922
最早	-7923
境内	-7924
oty	-7925
▁symb	-7926
功效	-7927
气温	-7928
技术和	-7929
许可证	-7930
▁sport	-7931
更高	-7932
扎实	-7933
对比	-7934
干净	-7935
▁tight	-7936
▁fif	-7937
▁guarant	-7938
内心	-7939
anche	-7940
便是	-7941
废气	-7942
▁estimated	-7943
hand	-7944
魅力	-7945
临时	-7946
▁Australian	-7947
技巧	-7948
男子	-7949
违规	-7950
了解到	-7951
▁Color	-7952
idden	-7953
▁intended	-7954
▁Medic	-7955
lets	-7956
▁vehicles	-7957
rible	-7958
▁streets	-7959
person	-7960
uration	-7961
▁Project	-7962
▁rid	-7963
▁broken	-7964
回归	-7965
层面	-7966
LA	-7967
我们将	-7968
▁occurred	-7969
我想	-7970
▁helps	-7971
▁consult	-7972
万美元	-7973
当事	-7974
orage	-7975
▁roll	-7976
alls	-7977
发送	-7978
obody	-7979
和技术	-7980
ortion	-7981
▁flow	-7982
秩序	-7983
常务	-7984
关闭	-7985
材料的	-7986
生涯	-7987
绿化	-7988
配件	-7989
重复	-7990
研讨	-7991
ressive	-7992
LS	-7993
立足	-7994
因而	-7995
cean	-7996
电网	-7997
简单的	-7998
▁fired	-7999
▁ton	-8000
校区	-8001
▁expert	-8002
爱心	-8003
▁determine	-8004
▁lob	-8005
▁Guard	-8006
▁Hy	-8007
一带一路	-8008
体会	-8009
检察	-8010
验收	-8011
婚姻	-8012
road	-8013
延伸	-8014
▁domin	-8015
聚氨酯	-8016
合并	-8017
▁clim	-8018
terday	-8019
▁Charl	-8020
身份证	-8021
的过程中	-8022
▁Andrew	-8023
ml	-8024
实习	-8025
志愿者	-8026
性格	-8027
▁troops	-8028
开幕	-8029
白癜风患者	-8030
▁About	-8031
不在	-8032
浙江省	-8033
浏览	-8034
▁located	-8035
Ar	-8036
▁rapid	-8037
获奖	-8038
电缆	-8039
教材	-8040
区块	-8041
▁Sum	-8042
转载	-8043
eds	-8044
赔偿	-8045
高峰	-8046
出租	-8047
模拟	-8048
xual	-8049
▁Av	-8050
正规	-8051
▁sector	-8052
▁potentially	-8053
ader	-8054
电视剧	-8055
▁Jackson	-8056
门票	-8057
越来越多	-8058
war	-8059
学员	-8060
▁Space	-8061
新能源汽车	-8062
防火	-8063
▁Work	-8064
▁specifically	-8065
招商	-8066
难度	-8067
▁Island	-8068
isher	-8069
飞行	-8070
经济社会	-8071
inent	-8072
▁pieces	-8073
纽约	-8074
管理的	-8075
细菌	-8076
▁bringing	-8077
不需要	-8078
yr	-8079
欧盟	-8080
▁System	-8081
上线	-8082
▁governments	-8083
有点	-8084
建筑面积	-8085
乐园	-8086
班级	-8087
现在的	-8088
ht	-8089
蛋白质	-8090
▁prepared	-8091
▁stress	-8092
占据	-8093
负担	-8094
▁prove	-8095
差距	-8096
厘米	-8097
▁plenty	-8098
▁selling	-8099
▁//	-8100
增值	-8101
endment	-8102
车间	-8103
▁hyp	-8104
▁nar	-8105
▁council	-8106
担当	-8107
饰演	-8108
▁refused	-8109
讲解	-8110
很高	-8111
镜头	-8112
▁conclus	-8113
顾问	-8114
▁faster	-8115
▁proposal	-8116
▁vulner	-8117
▁Haw	-8118
认知	-8119
▁baby	-8120
站在	-8121
▁Ma	-8122
▁ruling	-8123
▁Hol	-8124
有害	-8125
▁boost	-8126
境外	-8127
▁offering	-8128
职称	-8129
▁stars	-8130
▁jail	-8131
贯彻落实	-8132
进而	-8133
vey	-8134
框架	-8135
发育	-8136
▁carbon	-8137
科学院	-8138
而成	-8139
达到了	-8140
被称为	-8141
▁seasons	-8142
onom	-8143
Go	-8144
实时	-8145
糖尿病	-8146
▁equipment	-8147
ashion	-8148
phas	-8149
公司在	-8150
▁heav	-8151
▁prosecut	-8152
人和	-8153
精度	-8154
的第一	-8155
▁infrastructure	-8156
lyn	-8157
精心	-8158
inte	-8159
▁Note	-8160
给了	-8161
燃烧	-8162
回家	-8163
内涵	-8164
连锁	-8165
▁Road	-8166
Al	-8167
现状	-8168
ita	-8169
式的	-8170
西方	-8171
标准的	-8172
▁broke	-8173
上面	-8174
▁breat	-8175
多数	-8176
未来的	-8177
ureau	-8178
▁elected	-8179
▁conducted	-8180
▁factors	-8181
▁era	-8182
▁expressed	-8183
经销	-8184
举措	-8185
ours	-8186
▁challenges	-8187
▁dram	-8188
Cl	-8189
协作	-8190
得以	-8191
▁Nov	-8192
各国	-8193
饭店	-8194
▁Fer	-8195
noon	-8196
▁methods	-8197
▁infect	-8198
更大	-8199
很少	-8200
▁clot	-8201
▁din	-8202
轴承	-8203
DS	-8204
CP	-8205
较高的	-8206
="	-8207
▁secure	-8208
甘肃	-8209
Tube	-8210
ey	-8211
▁random	-8212
学期	-8213
补偿	-8214
不开	-8215
▁voted	-8216
▁BBC	-8217
▁clin	-8218
等领域	-8219
▁Ok	-8220
场地	-8221
约为	-8222
▁originally	-8223
那样	-8224
这部	-8225
通风	-8226
研制	-8227
▁Pac	-8228
▁remained	-8229
聚焦	-8230
▁据了解	-8231
的东西	-8232
▁equal	-8233
我们要	-8234
rog	-8235
哲学	-8236
户外	-8237
▁Science	-8238
CO	-8239
lymp	-8240
,'	-8241
▁prime	-8242
▁pointed	-8243
主演	-8244
艺术家	-8245
都市	-8246
竞技	-8247
▁retail	-8248
▁Develop	-8249
▁Force	-8250
▁remove	-8251
的质量	-8252
▁combat	-8253
UT	-8254
灾害	-8255
ocking	-8256
▁虽然	-8257
深圳市	-8258
幼儿园	-8259
▁trig	-8260
▁criticism	-8261
▁positions	-8262
攻击	-8263
用户的	-8264
▁Meanwhile	-8265
etic	-8266
喜爱	-8267
▁signs	-8268
▁youth	-8269
关节	-8270
录制	-8271
威胁	-8272
▁chemical	-8273
的过程	-8274
防范	-8275
附件	-8276
缴纳	-8277
无限	-8278
介绍了	-8279
新建	-8280
,[	-8281
▁tourn	-8282
桥梁	-8283
▁percentage	-8284
并将	-8285
rier	-8286
▁Squ	-8287
程度上	-8288
▁Human	-8289
菩萨	-8290
客观	-8291
▁appearance	-8292
有关规定	-8293
▁cultural	-8294
便捷	-8295
▁master	-8296
▁voting	-8297
的关系	-8298
罚款	-8299
▁finish	-8300
依赖	-8301
▁Dou	-8302
拍卖	-8303
▁facing	-8304
olved	-8305
mond	-8306
更大的	-8307
记得	-8308
▁shall	-8309
能力和	-8310
防水	-8311
日电	-8312
▁sale	-8313
▁regime	-8314
主角	-8315
活跃	-8316
回报	-8317
葡萄酒	-8318
▁weren	-8319
▁Where	-8320
共产	-8321
▁shape	-8322
▁greatest	-8323
▁thank	-8324
看着	-8325
东部	-8326
▁stret	-8327
▁Daily	-8328
▁Wal	-8329
说法	-8330
pired	-8331
▁significantly	-8332
▁affected	-8333
▁weapon	-8334
不一样	-8335
书面	-8336
结婚	-8337
▁involve	-8338
慢性	-8339
▁李	-8340
客户的	-8341
▁tele	-8342
金融机构	-8343
standing	-8344
▁Bus	-8345
reens	-8346
打破	-8347
arp	-8348
扩展	-8349
▁determined	-8350
top	-8351
目录	-8352
asp	-8353
▁bought	-8354
▁marg	-8355
能在	-8356
▁politicians	-8357
股价	-8358
强制	-8359
交通运输	-8360
▁Down	-8361
第三方	-8362
olit	-8363
留下	-8364
可在	-8365
面前	-8366
四大	-8367
aniel	-8368
冬季	-8369
▁wood	-8370
内蒙古	-8371
▁Supp	-8372
▁Labour	-8373
axy	-8374
设计的	-8375
两位	-8376
在美国	-8377
基础上	-8378
为此	-8379
亏损	-8380
▁Gen	-8381
▁Director	-8382
救援	-8383
▁mode	-8384
▁grew	-8385
显得	-8386
ighters	-8387
▁obviously	-8388
▁hurt	-8389
▁Maybe	-8390
答案	-8391
之处	-8392
星级	-8393
著名的	-8394
▁不过	-8395
▁herself	-8396
▁argued	-8397
ache	-8398
xx	-8399
▁remaining	-8400
ogue	-8401
▁rent	-8402
▁reduced	-8403
▁thr	-8404
▁plus	-8405
巴西	-8406
要注意	-8407
演唱	-8408
采集	-8409
农产品	-8410
创始	-8411
DC	-8412
▁recorded	-8413
▁purchase	-8414
单元	-8415
携程	-8416
办事	-8417
▁revenue	-8418
▁films	-8419
▁hun	-8420
扶持	-8421
▁contrast	-8422
还没有	-8423
▁videos	-8424
稳定性	-8425
BM	-8426
gment	-8427
▁minimum	-8428
到来	-8429
▁indeed	-8430
▁supporting	-8431
污染物	-8432
HS	-8433
ordin	-8434
▁Pakistan	-8435
▁surprising	-8436
号线	-8437
ato	-8438
以往	-8439
▁Rod	-8440
▁wearing	-8441
印发	-8442
通报	-8443
特定	-8444
工人	-8445
▁handle	-8446
▁panel	-8447
运动员	-8448
▁shift	-8449
太多	-8450
日晚	-8451
互相	-8452
ownt	-8453
essions	-8454
政府网	-8455
▁excited	-8456
▁leads	-8457
爱好	-8458
▁switch	-8459
女子	-8460
人员的	-8461
▁prospect	-8462
▁considering	-8463
期货	-8464
So	-8465
▁Olymp	-8466
▁Turkey	-8467
▁appreci	-8468
山区	-8469
▁Wood	-8470
▁opportunities	-8471
巴黎	-8472
▁minute	-8473
中药	-8474
回忆	-8475
组建	-8476
要有	-8477
年轻人	-8478
集团有限公司	-8479
▁spring	-8480
▁proced	-8481
导师	-8482
uts	-8483
仅仅	-8484
齐全	-8485
争取	-8486
在校	-8487
▁Ron	-8488
▁aircraft	-8489
组织的	-8490
紧急	-8491
col	-8492
上一	-8493
▁subs	-8494
▁bound	-8495
▁Penn	-8496
渗透	-8497
导体	-8498
传媒	-8499
▁afternoon	-8500
▁Gar	-8501
▁cas	-8502
▁aid	-8503
ruption	-8504
▁accident	-8505
等相关	-8506
▁identify	-8507
发布了	-8508
zer	-8509
参展	-8510
▁tact	-8511
微生物	-8512
图像	-8513
cohol	-8514
天然气	-8515
▁explos	-8516
▁concent	-8517
平稳	-8518
▁motiv	-8519
▁Grand	-8520
▁belong	-8521
life	-8522
▁basically	-8523
水质	-8524
▁consumers	-8525
▁seriously	-8526
聚集	-8527
▁experienced	-8528
▁differences	-8529
要素	-8530
味道	-8531
的选择	-8532
▁depart	-8533
讲座	-8534
▁apps	-8535
自觉	-8536
nell	-8537
法律法规	-8538
纪律	-8539
▁pulled	-8540
痛苦	-8541
▁agent	-8542
plom	-8543
的核心	-8544
▁evening	-8545
东京	-8546
ket	-8547
爆发	-8548
▁turning	-8549
流通	-8550
▁privacy	-8551
分公司	-8552
夏季	-8553
▁glass	-8554
apping	-8555
elly	-8556
▁PR	-8557
▁emergency	-8558
class	-8559
济南	-8560
▁AC	-8561
▁Kim	-8562
防腐	-8563
gent	-8564
▁Vict	-8565
▁package	-8566
国产	-8567
pet	-8568
▁observ	-8569
可以通过	-8570
全世界	-8571
管理办法	-8572
▁ends	-8573
▁据悉	-8574
hered	-8575
优异	-8576
电压	-8577
▁combined	-8578
▁construct	-8579
▁listen	-8580
▁treated	-8581
▁Life	-8582
▁hopes	-8583
▁Jul	-8584
减轻	-8585
nergy	-8586
设计师	-8587
下跌	-8588
请求	-8589
osite	-8590
bu	-8591
▁Bat	-8592
浪费	-8593
▁completed	-8594
博览	-8595
▁Somet	-8596
can	-8597
▁mort	-8598
▁ast	-8599
ucks	-8600
▁diss	-8601
that	-8602
自身的	-8603
▁除了	-8604
发起	-8605
▁seat	-8606
理工	-8607
不仅仅	-8608
场的	-8609
▁Blue	-8610
▁visual	-8611
▁Best	-8612
重的	-8613
的人生	-8614
男性	-8615
▁\	-8616
我院	-8617
有限责任	-8618
▁Sher	-8619
润滑	-8620
▁passing	-8621
节省	-8622
▁Er	-8623
开发区	-8624
ensions	-8625
▁element	-8626
oral	-8627
▁Ohio	-8628
▁pages	-8629
estival	-8630
raud	-8631
作家	-8632
年级	-8633
▁id	-8634
▁copyright	-8635
机电	-8636
Bl	-8637
侵权	-8638
▁Week	-8639
彼此	-8640
▁widely	-8641
▁advance	-8642
保养	-8643
过了	-8644
NC	-8645
▁struggle	-8646
▁lots	-8647
abilities	-8648
劳动合同	-8649
idel	-8650
##	-8651
▁talked	-8652
oung	-8653
ivered	-8654
▁opposed	-8655
参数	-8656
清理	-8657
ala	-8658
ipping	-8659
首批	-8660
等问题	-8661
业的	-8662
接下来	-8663
回应	-8664
▁Ill	-8665
care	-8666
▁attempts	-8667
oken	-8668
形状	-8669
明显的	-8670
▁reporters	-8671
▁plants	-8672
▁zone	-8673
难题	-8674
ench	-8675
子女	-8676
▁sad	-8677
环比	-8678
列入	-8679
▁discl	-8680
这类	-8681
厦门	-8682
不得不	-8683
十大	-8684
▁dismiss	-8685
率先	-8686
▁CNN	-8687
自信	-8688
优秀的	-8689
oking	-8690
anged	-8691
▁trouble	-8692
ributed	-8693
热爱	-8694
妻子	-8695
出现在	-8696
有力	-8697
散热	-8698
▁factor	-8699
▁suit	-8700
▁Again	-8701
教育的	-8702
▁Far	-8703
▁tun	-8704
房间	-8705
劳动者	-8706
架构	-8707
▁cart	-8708
▁collabor	-8709
这项	-8710
感受到	-8711
人事	-8712
ffee	-8713
机床	-8714
▁powers	-8715
▁liberal	-8716
▁calcul	-8717
▁reaction	-8718
ulture	-8719
十七	-8720
▁Exp	-8721
▁flat	-8722
▁hol	-8723
▁typically	-8724
▁burn	-8725
▁storm	-8726
新鲜	-8727
lines	-8728
福利	-8729
▁Right	-8730
rawn	-8731
最具	-8732
▁reference	-8733
▁proceed	-8734
▁Its	-8735
▁frust	-8736
这也	-8737
▁Braz	-8738
副书记	-8739
▁upgr	-8740
▁张	-8741
apter	-8742
▁Rev	-8743
mosp	-8744
复工	-8745
aints	-8746
花园	-8747
rip	-8748
▁valid	-8749
▁approved	-8750
发射	-8751
▁distance	-8752
cm	-8753
▁denied	-8754
amm	-8755
使其	-8756
▁Vol	-8757
▁Thank	-8758
同事	-8759
填写	-8760
▁default	-8761
职能	-8762
▁另外	-8763
▁instruct	-8764
尼亚	-8765
▁Thanks	-8766
▁grab	-8767
日内	-8768
▁disappoint	-8769
老板	-8770
一边	-8771
▁appeal	-8772
延续	-8773
▁responded	-8774
职务	-8775
▁caption	-8776
▁entertain	-8777
▁Hen	-8778
逻辑	-8779
▁renew	-8780
▁bodies	-8781
科学技术	-8782
文艺	-8783
▁quiet	-8784
不如	-8785
▁Str	-8786
报警	-8787
重要的是	-8788
演讲	-8789
工作者	-8790
esters	-8791
监会	-8792
▁institutions	-8793
razy	-8794
▁enemy	-8795
▁Afghanistan	-8796
抓住	-8797
▁optim	-8798
是我们	-8799
电站	-8800
▁writes	-8801
respond	-8802
▁ID	-8803
防疫	-8804
台北	-8805
▁matters	-8806
一张	-8807
sts	-8808
信息技术	-8809
▁Aut	-8810
消失	-8811
身心	-8812
free	-8813
▁Scot	-8814
▁”	-8815
重组	-8816
人们的	-8817
进出口	-8818
为大家	-8819
▁quant	-8820
▁confidence	-8821
aped	-8822
才会	-8823
疾病的	-8824
▁iPhone	-8825
冠状	-8826
年以来	-8827
ompl	-8828
澳门	-8829
▁sets	-8830
▁国家	-8831
有望	-8832
rum	-8833
原创	-8834
万辆	-8835
▁stands	-8836
▁Seattle	-8837
▁broadcast	-8838
▁Walk	-8839
▁capable	-8840
▁你	-8841
▁Stan	-8842
▁elimin	-8843
print	-8844
▁王	-8845
▁creation	-8846
▁prompt	-8847
造成的	-8848
▁Elect	-8849
▁Four	-8850
是不是	-8851
▁Cop	-8852
unction	-8853
固体	-8854
美观	-8855
全新的	-8856
cos	-8857
▁sac	-8858
▁tradition	-8859
女士	-8860
党建	-8861
泰国	-8862
非洲	-8863
座谈	-8864
投诉	-8865
屏幕	-8866
▁和	-8867
IR	-8868
unte	-8869
数据库	-8870
▁van	-8871
▁mal	-8872
▁explo	-8873
命运	-8874
远程	-8875
简介	-8876
不易	-8877
移民	-8878
adow	-8879
▁mand	-8880
▁cloud	-8881
▁confident	-8882
两次	-8883
▁pitch	-8884
▁satisf	-8885
abin	-8886
▁advert	-8887
▁Prem	-8888
基金会	-8889
大于	-8890
的行为	-8891
▁reportedly	-8892
▁Hel	-8893
▁split	-8894
▁Long	-8895
evin	-8896
争议	-8897
背后	-8898
数控	-8899
▁unable	-8900
▁Dev	-8901
▁gra	-8902
的经营	-8903
▁reli	-8904
isters	-8905
▁Michigan	-8906
▁technical	-8907
▁transition	-8908
water	-8909
三是	-8910
ternal	-8911
▁severe	-8912
employ	-8913
▁Upd	-8914
writ	-8915
▁numerous	-8916
态势	-8917
▁newspaper	-8918
的效果	-8919
▁北京	-8920
▁cook	-8921
账户	-8922
▁Christmas	-8923
uous	-8924
社会的	-8925
Un	-8926
查看	-8927
照顾	-8928
注明	-8929
线的	-8930
▁weather	-8931
rend	-8932
▁crimes	-8933
▁perspective	-8934
房子	-8935
乃至	-8936
pass	-8937
应聘	-8938
rid	-8939
全民	-8940
用电	-8941
▁Mount	-8942
MS	-8943
我在	-8944
时光	-8945
区块链	-8946
新华	-8947
▁flag	-8948
看见	-8949
▁fly	-8950
▁declared	-8951
第六	-8952
▁suffered	-8953
gia	-8954
件事	-8955
▁ordered	-8956
▁coast	-8957
力和	-8958
New	-8959
host	-8960
监察	-8961
如有	-8962
astern	-8963
▁ongoing	-8964
▁pictures	-8965
▁advice	-8966
▁approx	-8967
万亿元	-8968
液体	-8969
南方	-8970
▁declined	-8971
▁shouldn	-8972
aza	-8973
▁violent	-8974
频率	-8975
▁faces	-8976
▁forget	-8977
▁explains	-8978
,’	-8979
集团公司	-8980
院士	-8981
学的	-8982
▁Sky	-8983
ERS	-8984
ulations	-8985
可达	-8986
ilty	-8987
▁Hou	-8988
▁movies	-8989
▁reporting	-8990
▁Enter	-8991
播放	-8992
ishes	-8993
强大	-8994
rant	-8995
▁Club	-8996
▁experiences	-8997
▁loved	-8998
▁giant	-8999
▁delay	-9000
▁proud	-9001
▁substant	-9002
FP	-9003
乡镇	-9004
amin	-9005
的特点	-9006
活动中	-9007
为止	-9008
▁Ann	-9009
记载	-9010
两大	-9011
▁route	-9012
▁Di	-9013
的变化	-9014
▁picked	-9015
慈善	-9016
京东	-9017
EE	-9018
▁injured	-9019
充足	-9020
ooth	-9021
精密	-9022
▁GM	-9023
▁messages	-9024
▁delivered	-9025
▁eval	-9026
ym	-9027
之日起	-9028
心中	-9029
▁guns	-9030
遵循	-9031
转型升级	-9032
▁craft	-9033
人次	-9034
承受	-9035
理财	-9036
▁cooper	-9037
企业和	-9038
▁thoughts	-9039
创立	-9040
▁circumst	-9041
看起来	-9042
▁Saudi	-9043
党支部	-9044
个体	-9045
女孩	-9046
中医药	-9047
最初	-9048
▁cann	-9049
ampion	-9050
骨干	-9051
▁Sov	-9052
▁bull	-9053
▁brows	-9054
reland	-9055
的形式	-9056
▁married	-9057
▁updates	-9058
▁admitted	-9059
预订	-9060
写作	-9061
大概	-9062
acter	-9063
▁Muslims	-9064
dule	-9065
物料	-9066
▁findings	-9067
路上	-9068
abled	-9069
设定	-9070
▁architect	-9071
▁Romney	-9072
▁accompl	-9073
▁connected	-9074
的世界	-9075
电视台	-9076
▁gather	-9077
▁AD	-9078
变革	-9079
登录	-9080
▁TO	-9081
▁publicly	-9082
水平的	-9083
▁excell	-9084
受益	-9085
angers	-9086
后续	-9087
uations	-9088
产值	-9089
▁editor	-9090
enture	-9091
吸附	-9092
用车	-9093
加重	-9094
▁rail	-9095
辉煌	-9096
▁graph	-9097
▁emails	-9098
依旧	-9099
我省	-9100
▁edge	-9101
▁perman	-9102
oves	-9103
ellow	-9104
▁同时	-9105
▁appropriate	-9106
▁Lake	-9107
▁forg	-9108
欧元	-9109
董事会	-9110
▁leaves	-9111
▁auth	-9112
睡眠	-9113
ionally	-9114
淘汰	-9115
制造商	-9116
纠纷	-9117
祖国	-9118
▁emphas	-9119
ansas	-9120
ourney	-9121
iat	-9122
enger	-9123
结束后	-9124
等的	-9125
essor	-9126
▁lawyer	-9127
called	-9128
long	-9129
相似	-9130
条件下	-9131
和发展	-9132
▁statements	-9133
▁NBA	-9134
热门	-9135
enda	-9136
▁prin	-9137
及相关	-9138
▁Ukraine	-9139
讲话	-9140
▁readers	-9141
Hz	-9142
电流	-9143
情节	-9144
不变	-9145
工会	-9146
处的	-9147
▁Year	-9148
▁realize	-9149
▁armed	-9150
▁Card	-9151
▁Home	-9152
有限责任公司	-9153
▁agents	-9154
的项目	-9155
▁Lib	-9156
▁activists	-9157
▁drivers	-9158
▁confirm	-9159
▁walking	-9160
▁View	-9161
▁Swed	-9162
▁Dar	-9163
待遇	-9164
tion	-9165
激烈	-9166
▁rot	-9167
orse	-9168
uls	-9169
有多	-9170
▁session	-9171
财政部	-9172
▁legit	-9173
贵的	-9174
入口	-9175
较大的	-9176
Pro	-9177
一项	-9178
▁argue	-9179
号码	-9180
▁Mot	-9181
语文	-9182
▁tech	-9183
)(	-9184
小镇	-9185
凝聚	-9186
为主题	-9187
▁Games	-9188
以外	-9189
acle	-9190
▁Sar	-9191
edia	-9192
不忘	-9193
表彰	-9194
治愈	-9195
mates	-9196
▁Kar	-9197
深受	-9198
▁Sports	-9199
▁practices	-9200
▁talent	-9201
公寓	-9202
验证	-9203
烘干	-9204
▁terrorist	-9205
▁buildings	-9206
种子	-9207
▁fish	-9208
丙烯	-9209
无需	-9210
▁ourselves	-9211
On	-9212
振兴	-9213
▁第一	-9214
寻求	-9215
▁quarterback	-9216
▁filled	-9217
均为	-9218
athan	-9219
承办	-9220
▁Ram	-9221
▁allegations	-9222
无意	-9223
asure	-9224
word	-9225
听到	-9226
波动	-9227
显然	-9228
主流	-9229
ena	-9230
▁Aff	-9231
上有	-9232
▁Ireland	-9233
隧道	-9234
▁patient	-9235
ador	-9236
敏感	-9237
▁Cub	-9238
▁secretary	-9239
班主任	-9240
和管理	-9241
过度	-9242
▁crack	-9243
借助	-9244
比亚	-9245
ette	-9246
单一	-9247
好像	-9248
▁effectively	-9249
▁Columb	-9250
▁Econom	-9251
▁dial	-9252
▁pool	-9253
▁moral	-9254
捐赠	-9255
▁exercise	-9256
▁Brazil	-9257
后期	-9258
▁Max	-9259
港口	-9260
________________	-9261
▁Boy	-9262
▁missed	-9263
duc	-9264
▁transform	-9265
我们可以	-9266
▁Barack	-9267
ii	-9268
将继续	-9269
病的	-9270
NG	-9271
orders	-9272
爸爸	-9273
▁injuries	-9274
▁Three	-9275
▁debut	-9276
▁Story	-9277
▁dynam	-9278
全程	-9279
▁thinks	-9280
▁Asia	-9281
▁examples	-9282
▁diplom	-9283
开通	-9284
▁objects	-9285
rome	-9286
▁subsequ	-9287
▁Wik	-9288
总量	-9289
失业	-9290
▁shop	-9291
政府信息	-9292
▁Inf	-9293
illy	-9294
极大	-9295
夏天	-9296
▁flo	-9297
实训	-9298
▁artist	-9299
agers	-9300
CE	-9301
sembly	-9302
成功的	-9303
▁tree	-9304
▁contains	-9305
获悉	-9306
▁expansion	-9307
▁god	-9308
▁Java	-9309
▁wear	-9310
▁label	-9311
▁Polit	-9312
eff	-9313
外部	-9314
▁causes	-9315
二次	-9316
视野	-9317
等多种	-9318
An	-9319
burg	-9320
▁Author	-9321
售后服务	-9322
南部	-9323
专辑	-9324
resents	-9325
的美	-9326
半导体	-9327
orry	-9328
........	-9329
究竟	-9330
▁initially	-9331
好评	-9332
女人	-9333
▁bond	-9334
edy	-9335
ounded	-9336
低温	-9337
的学习	-9338
生成	-9339
乐观	-9340
航班	-9341
illance	-9342
▁Next	-9343
火灾	-9344
综合性	-9345
这一点	-9346
cons	-9347
Con	-9348
rich	-9349
▁Ins	-9350
妇女	-9351
▁warned	-9352
▁Board	-9353
▁Fil	-9354
本质	-9355
▁sam	-9356
的社会	-9357
omin	-9358
能否	-9359
▁Eric	-9360
▁ing	-9361
CS	-9362
▁Cy	-9363
ideo	-9364
▁scheduled	-9365
▁essentially	-9366
▁rain	-9367
伦敦	-9368
较强的	-9369
▁governor	-9370
▁franch	-9371
▁desire	-9372
▁client	-9373
▁Ell	-9374
▁linked	-9375
mi	-9376
文旅	-9377
arters	-9378
反而	-9379
▁motor	-9380
一直在	-9381
弘扬	-9382
大批	-9383
储备	-9384
level	-9385
▁announcement	-9386
▁waste	-9387
▁hell	-9388
价值观	-9389
企业在	-9390
百度	-9391
▁faced	-9392
▁materials	-9393
iest	-9394
▁centre	-9395
也很	-9396
▁incor	-9397
若干	-9398
▁performed	-9399
▁pure	-9400
▁第四	-9401
乘坐	-9402
esome	-9403
都没有	-9404
▁accepted	-9405
▁Fam	-9406
ilit	-9407
心脏	-9408
▁advanced	-9409
▁IP	-9410
一片	-9411
▁explan	-9412
感动	-9413
的目的	-9414
▁YouTube	-9415
▁datab	-9416
▁necessarily	-9417
▁Fig	-9418
▁offense	-9419
▁playoff	-9420
使用寿命	-9421
军事	-9422
)》	-9423
的首	-9424
▁magazine	-9425
▁doctor	-9426
遭遇	-9427
分解	-9428
单独	-9429
▁radical	-9430
▁ISIS	-9431
▁Ariz	-9432
▁suc	-9433
▁spons	-9434
广阔	-9435
▁yesterday	-9436
为例	-9437
▁listed	-9438
要在	-9439
▁ske	-9440
▁bare	-9441
这款	-9442
复印	-9443
排水	-9444
接着	-9445
批发	-9446
▁Further	-9447
▁facts	-9448
▁但是	-9449
▁此次	-9450
未经	-9451
▁abandon	-9452
▁Perhaps	-9453
▁joint	-9454
icing	-9455
将成为	-9456
▁pra	-9457
▁mir	-9458
▁improved	-9459
▁Van	-9460
▁neither	-9461
生动	-9462
▁Gra	-9463
abb	-9464
Ex	-9465
的建设	-9466
北部	-9467
▁chart	-9468
昆明	-9469
▁athlet	-9470
球迷	-9471
▁Mic	-9472
▁increases	-9473
创办	-9474
itors	-9475
▁nearby	-9476
▁flood	-9477
▁resolution	-9478
▁distribution	-9479
百年	-9480
▁nations	-9481
宇宙	-9482
▁fort	-9483
分散	-9484
年开始	-9485
钢结构	-9486
▁myster	-9487
▁近日	-9488
▁Div	-9489
▁surprised	-9490
zy	-9491
otic	-9492
▁consequences	-9493
▁atmosp	-9494
当事人	-9495
不论	-9496
law	-9497
irty	-9498
秘密	-9499
▁Davis	-9500
扩张	-9501
▁Du	-9502
体内	-9503
web	-9504
▁everybody	-9505
▁Share	-9506
usal	-9507
▁Brook	-9508
诞生	-9509
解除	-9510
▁Colorado	-9511
▁begins	-9512
▁Jews	-9513
▁follows	-9514
本土	-9515
irds	-9516
之所以	-9517
▁warm	-9518
经济的	-9519
chen	-9520
成人	-9521
不多	-9522
要求的	-9523
让他	-9524
国际化	-9525
▁Energy	-9526
附属	-9527
库存	-9528
▁represents	-9529
▁五	-9530
▁adds	-9531
▁Houston	-9532
▁enh	-9533
告知	-9534
有可能	-9535
经销商	-9536
云计算	-9537
▁Take	-9538
实地	-9539
网页	-9540
催化	-9541
我公司	-9542
▁moves	-9543
▁stood	-9544
▁guilty	-9545
运营商	-9546
▁phen	-9547
▁threats	-9548
假期	-9549
▁applied	-9550
▁Men	-9551
龙江	-9552
豪华	-9553
以便	-9554
本文	-9555
节奏	-9556
▁Arch	-9557
▁ride	-9558
方针	-9559
算法	-9560
▁记者	-9561
比赛中	-9562
▁plane	-9563
▁rein	-9564
▁democracy	-9565
携带	-9566
下一步	-9567
管理局	-9568
▁Old	-9569
▁Rights	-9570
原始	-9571
▁pushed	-9572
▁Women	-9573
▁shots	-9574
业界	-9575
▁island	-9576
正确的	-9577
对应	-9578
▁remark	-9579
arden	-9580
edd	-9581
▁config	-9582
必要的	-9583
▁Korean	-9584
▁Holly	-9585
▁lawsuit	-9586
容器	-9587
urning	-9588
仔细	-9589
局部	-9590
主导	-9591
▁restaurant	-9592
whel	-9593
▁manufacture	-9594
文化和	-9595
cho	-9596
▁entry	-9597
▁sought	-9598
锅炉	-9599
▁bot	-9600
▁brings	-9601
▁square	-9602
▁investors	-9603
省市	-9604
▁kit	-9605
▁behavi	-9606
时代的	-9607
▁creative	-9608
党委书记	-9609
比重	-9610
占地面积	-9611
▁以上	-9612
xy	-9613
制冷	-9614
▁withd	-9615
▁rising	-9616
▁alt	-9617
为人	-9618
▁combination	-9619
这两	-9620
▁alcohol	-9621
节日	-9622
▁discussed	-9623
▁totally	-9624
绘画	-9625
损伤	-9626
▁AT	-9627
判决	-9628
衣服	-9629
ora	-9630
▁Charles	-9631
▁boys	-9632
多名	-9633
▁fill	-9634
分数	-9635
▁scored	-9636
▁Wild	-9637
▁historical	-9638
▁articles	-9639
执业	-9640
某种	-9641
对待	-9642
总统	-9643
▁receiving	-9644
All	-9645
接收	-9646
大规模	-9647
▁Way	-9648
rive	-9649
▁songs	-9650
▁native	-9651
月至	-9652
▁storage	-9653
无数	-9654
▁row	-9655
ocket	-9656
▁resident	-9657
约定	-9658
▁Die	-9659
山市	-9660
以此	-9661
▁contest	-9662
看出	-9663
▁consistent	-9664
vin	-9665
▁scr	-9666
放松	-9667
▁heads	-9668
健康的	-9669
▁temperature	-9670
三种	-9671
地上	-9672
nic	-9673
▁decre	-9674
交易所	-9675
▁boss	-9676
▁consumer	-9677
▁Tay	-9678
▁resc	-9679
▁近年来	-9680
pan	-9681
▁philosop	-9682
储存	-9683
alty	-9684
▁小	-9685
千瓦	-9686
在国内	-9687
▁roughly	-9688
人均	-9689
▁classes	-9690
仪表	-9691
▁Kevin	-9692
▁entered	-9693
▁bright	-9694
▁networks	-9695
▁unlikely	-9696
为核心	-9697
▁correspond	-9698
▁library	-9699
▁Child	-9700
▁parliament	-9701
机动	-9702
▁colleagues	-9703
▁Stephen	-9704
gs	-9705
在内的	-9706
在北京	-9707
局面	-9708
▁output	-9709
fortunately	-9710
▁lie	-9711
▁DC	-9712
▁sav	-9713
管理工作	-9714
留学	-9715
品牌的	-9716
issions	-9717
stood	-9718
▁Cast	-9719
零部件	-9720
圆满	-9721
iable	-9722
▁warning	-9723
▁existence	-9724
二氧化	-9725
一行	-9726
早在	-9727
▁Valley	-9728
公斤	-9729
▁succeed	-9730
的大型	-9731
科目	-9732
▁Stand	-9733
▁Ret	-9734
前期	-9735
greg	-9736
▁currency	-9737
roit	-9738
▁deaths	-9739
▁Pan	-9740
入学	-9741
人都	-9742
hetic	-9743
born	-9744
ferences	-9745
ittle	-9746
弹性	-9747
▁heavily	-9748
inem	-9749
基本上	-9750
▁bike	-9751
▁younger	-9752
▁functions	-9753
▁button	-9754
▁fairly	-9755
▁protests	-9756
▁rally	-9757
va	-9758
▁symbol	-9759
▁anywhere	-9760
VC	-9761
配送	-9762
其余	-9763
▁stores	-9764
冠状病毒	-9765
▁Hot	-9766
白酒	-9767
▁lock	-9768
地说	-9769
百万	-9770
▁household	-9771
民主	-9772
歌手	-9773
感恩	-9774
专注于	-9775
今年的	-9776
iger	-9777
的感觉	-9778
▁metal	-9779
cipl	-9780
▁zero	-9781
ician	-9782
▁Tit	-9783
带有	-9784
存在的	-9785
水中	-9786
出售	-9787
职业教育	-9788
万人次	-9789
▁plot	-9790
▁Invest	-9791
当下	-9792
agan	-9793
▁Brad	-9794
▁Putin	-9795
▁links	-9796
类的	-9797
oked	-9798
▁importance	-9799
▁marketing	-9800
▁breaking	-9801
▁Wat	-9802
接到	-9803
绩效	-9804
▁Ital	-9805
产业的	-9806
已经成为	-9807
AG	-9808
▁fraud	-9809
▁input	-9810
▁prohib	-9811
▁regulations	-9812
常态	-9813
▁classic	-9814
在全球	-9815
进度	-9816
及其他	-9817
ican	-9818
bar	-9819
为中心	-9820
▁NASA	-9821
▁Young	-9822
▁targets	-9823
ta	-9824
总投资	-9825
▁snow	-9826
▁Cruz	-9827
癌症	-9828
▁manage	-9829
▁nav	-9830
去了	-9831
别的	-9832
oma	-9833
▁buying	-9834
iques	-9835
温馨	-9836
▁campus	-9837
大厦	-9838
地图	-9839
west	-9840
标签	-9841
▁allegedly	-9842
▁Defense	-9843
湖南省	-9844
斯坦	-9845
负债	-9846
▁doctors	-9847
合肥	-9848
▁favour	-9849
▁Tal	-9850
▁Palestinian	-9851
立方	-9852
等多	-9853
等工作	-9854
开心	-9855
andal	-9856
kel	-9857
▁中国政府网	-9858
举报	-9859
司机	-9860
▁replaced	-9861
ordan	-9862
的一部分	-9863
潜在	-9864
▁facility	-9865
心情	-9866
合理的	-9867
▁promise	-9868
▁shif	-9869
公务员	-9870
▁tow	-9871
▁expression	-9872
▁Py	-9873
onna	-9874
总监	-9875
▁illust	-9876
▁defined	-9877
pret	-9878
承认	-9879
▁Miller	-9880
▁af	-9881
诊疗	-9882
▁Class	-9883
gas	-9884
▁vice	-9885
旅游业	-9886
并对	-9887
Get	-9888
变形	-9889
中级	-9890
▁somewhat	-9891
预约	-9892
神秘	-9893
▁CIA	-9894
初期	-9895
▁Daniel	-9896
▁schol	-9897
▁chain	-9898
▁Fort	-9899
开展了	-9900
相关部门	-9901
▁是	-9902
▁Arizona	-9903
▁string	-9904
不起	-9905
能力的	-9906
克服	-9907
秘书长	-9908
XX	-9909
批评	-9910
复苏	-9911
关联	-9912
受欢迎	-9913
▁fewer	-9914
▁blow	-9915
富有	-9916
创始人	-9917
一等奖	-9918
▁empt	-9919
发生了	-9920
BO	-9921
▁versions	-9922
这就	-9923
▁hat	-9924
uzz	-9925
twitter	-9926
环境的	-9927
以免	-9928
▁opposite	-9929
▁Soviet	-9930
olve	-9931
dis	-9932
▁adults	-9933
会展	-9934
▁holds	-9935
液压	-9936
She	-9937
▁bag	-9938
服务器	-9939
多人	-9940
▁tom	-9941
涨幅	-9942
▁essential	-9943
▁volunte	-9944
▁laugh	-9945
介质	-9946
▁hardware	-9947
享有	-9948
▁所以	-9949
与此同时	-9950
▁hoping	-9951
▁evolution	-9952
▁Love	-9953
power	-9954
ensus	-9955
▁industrial	-9956
建设项目	-9957
业主	-9958
▁moments	-9959
▁downt	-9960
▁motion	-9961
港澳	-9962
茶叶	-9963
微企业	-9964
style	-9965
相当于	-9966
▁NY	-9967
对话	-9968
PG	-9969
的光	-9970
世界杯	-9971
确诊病例	-9972
等方式	-9973
▁relevant	-9974
▁harder	-9975
三十	-9976
▁closely	-9977
SD	-9978
▁sees	-9979
▁acts	-9980
▁participants	-9981
▁rum	-9982
▁intention	-9983
awa	-9984
步伐	-9985
快速发展	-9986
时间为	-9987
▁sick	-9988
体积	-9989
▁customer	-9990
▁opponent	-9991
▁protected	-9992
▁acknowled	-9993
广泛应用于	-9994
▁returns	-9995
▁flu	-9996
管理和	-9997
Fi	-9998
ads	-9999
▁syn	-10000
▁Camer	-10001
美丽的	-10002
到位	-10003
服务中心	-10004
快的	-10005
▁Real	-10006
ko	-10007
utch	-10008
点的	-10009
▁grown	-10010
传奇	-10011
▁AR	-10012
▁高	-10013
精细	-10014
▁fashion	-10015
▁immediate	-10016
▁division	-10017
强烈	-10018
agram	-10019
脱贫攻坚	-10020
奠定	-10021
▁emotional	-10022
ao	-10023
▁hur	-10024
的全	-10025
好了	-10026
废物	-10027
的结果	-10028
林业	-10029
GDP	-10030
为何	-10031
ship	-10032
▁bon	-10033
icious	-10034
▁mechanism	-10035
制药	-10036
▁Wilson	-10037
指南	-10038
▁Jesus	-10039
▁Catholic	-10040
时间内	-10041
game	-10042
▁wave	-10043
▁Lord	-10044
▁isol	-10045
明的	-10046
扮演	-10047
篮球	-10048
▁月	-10049
GBT	-10050
系数	-10051
▁mine	-10052
str	-10053
外界	-10054
▁cycle	-10055
▁featured	-10056
有趣	-10057
▁cheap	-10058
给大家	-10059
ulous	-10060
厂房	-10061
▁Ep	-10062
ellect	-10063
▁circumstances	-10064
friend	-10065
比上年	-10066
▁batt	-10067
她们	-10068
付出	-10069
业务的	-10070
▁suffering	-10071
并未	-10072
▁adm	-10073
erves	-10074
ologist	-10075
分的	-10076
顶级	-10077
nam	-10078
政务	-10079
▁wins	-10080
bel	-10081
可能性	-10082
历史上	-10083
▁Bas	-10084
▁学校	-10085
▁tournament	-10086
扩散	-10087
▁immigrants	-10088
教育教学	-10089
的功能	-10090
心灵	-10091
基督	-10092
剧情	-10093
疼痛	-10094
笔试	-10095
▁relationships	-10096
▁Win	-10097
陷入	-10098
中共	-10099
▁excellent	-10100
继承	-10101
otal	-10102
▁detailed	-10103
一轮	-10104
▁describe	-10105
ua	-10106
民警	-10107
▁Carl	-10108
▁carrying	-10109
文献	-10110
▁Wars	-10111
▁End	-10112
▁extent	-10113
ORE	-10114
期望	-10115
▁artists	-10116
美好的	-10117
chers	-10118
船舶	-10119
▁tiny	-10120
certain	-10121
▁du	-10122
▁crazy	-10123
▁pip	-10124
奖项	-10125
▁decline	-10126
▁unus	-10127
▁authors	-10128
▁termin	-10129
高质量发展	-10130
货运	-10131
马来	-10132
',	-10133
▁efficient	-10134
为中国	-10135
▁kinds	-10136
他们在	-10137
American	-10138
▁signing	-10139
atell	-10140
▁earned	-10141
每月	-10142
▁pushing	-10143
▁Linux	-10144
封闭	-10145
的作品	-10146
频道	-10147
▁Dam	-10148
▁femin	-10149
phy	-10150
管理部门	-10151
▁competitive	-10152
▁Land	-10153
▁acting	-10154
▁controversial	-10155
▁cert	-10156
▁fundamental	-10157
▁guide	-10158
▁trick	-10159
需要的	-10160
anish	-10161
▁regional	-10162
后果	-10163
起点	-10164
▁sharing	-10165
区内	-10166
▁referred	-10167
重庆市	-10168
见证	-10169
登陆	-10170
▁OF	-10171
▁Network	-10172
▁alongside	-10173
▁ancient	-10174
客运	-10175
▁updated	-10176
之一的	-10177
观光	-10178
▁embr	-10179
型号	-10180
支援	-10181
之际	-10182
▁Company	-10183
▁Contin	-10184
在大	-10185
考古	-10186
▁formed	-10187
▁owned	-10188
夫妻	-10189
▁repeatedly	-10190
▁commitment	-10191
清华	-10192
▁comfortable	-10193
ockey	-10194
▁instru	-10195
成型	-10196
本届	-10197
hus	-10198
入住	-10199
▁lies	-10200
rison	-10201
▁hotel	-10202
▁wire	-10203
中等	-10204
▁frequently	-10205
uated	-10206
▁meat	-10207
▁egg	-10208
开学	-10209
作物	-10210
信息的	-10211
▁首先	-10212
ati	-10213
ocratic	-10214
暂时	-10215
anes	-10216
▁upcoming	-10217
▁Gall	-10218
职位	-10219
等行业	-10220
▁infl	-10221
落后	-10222
▁attempted	-10223
器械	-10224
▁urban	-10225
▁manner	-10226
辖市	-10227
▁NE	-10228
吸引了	-10229
耐磨	-10230
最重要的	-10231
明年	-10232
ographic	-10233
初中	-10234
原材料	-10235
模具	-10236
erry	-10237
嘉宾	-10238
▁Finally	-10239
iami	-10240
销售额	-10241
你可以	-10242
▁Detroit	-10243
tering	-10244
书画	-10245
To	-10246
历程	-10247
▁strange	-10248
最高的	-10249
Be	-10250
遗址	-10251
大家都	-10252
载体	-10253
就不	-10254
foot	-10255
缺陷	-10256
每周	-10257
▁美国	-10258
▁surveillance	-10259
umber	-10260
▁PS	-10261
马上	-10262
大桥	-10263
标题	-10264
▁column	-10265
高度重视	-10266
不断提高	-10267
养生	-10268
▁medic	-10269
减速	-10270
各部门	-10271
无缝	-10272
▁mouth	-10273
▁Ford	-10274
步行	-10275
▁dedicated	-10276
▁schedule	-10277
CD	-10278
放入	-10279
▁pregn	-10280
也不会	-10281
占有	-10282
weight	-10283
▁studio	-10284
lix	-10285
▁liqu	-10286
▁struck	-10287
▁Sk	-10288
某某	-10289
uable	-10290
过于	-10291
告诉记者	-10292
▁mainstream	-10293
引起的	-10294
▁Dun	-10295
所得税	-10296
冶金	-10297
def	-10298
主场	-10299
▁serving	-10300
▁inspired	-10301
▁Water	-10302
大学的	-10303
Pl	-10304
十条	-10305
为企业	-10306
gor	-10307
aze	-10308
湖北省	-10309
▁Organ	-10310
行驶	-10311
▁Among	-10312
▁posts	-10313
▁realized	-10314
▁Dig	-10315
进球	-10316
adel	-10317
▁targeted	-10318
alle	-10319
食品安全	-10320
▁最后	-10321
▁newslet	-10322
小程序	-10323
▁然而	-10324
car	-10325
▁sentence	-10326
化妆	-10327
气氛	-10328
stone	-10329
宁波	-10330
▁Did	-10331
▁suicide	-10332
▁intent	-10333
祝福	-10334
▁Turn	-10335
▁pled	-10336
班子	-10337
这是一个	-10338
▁coffee	-10339
▁agenda	-10340
iveness	-10341
象征	-10342
去除	-10343
▁Brian	-10344
km	-10345
山水	-10346
北方	-10347
▁Jr	-10348
为基础	-10349
▁Check	-10350
▁rape	-10351
dit	-10352
▁walked	-10353
作风	-10354
wart	-10355
▁virtual	-10356
boy	-10357
除此	-10358
三星	-10359
▁sand	-10360
▁tort	-10361
▁reput	-10362
▁causing	-10363
沈阳	-10364
▁ring	-10365
▁Vis	-10366
实际情况	-10367
▁depth	-10368
紫外	-10369
提取	-10370
动漫	-10371
▁desk	-10372
组成部分	-10373
为客户提供	-10374
▁chairman	-10375
是我	-10376
▁Adam	-10377
▁channel	-10378
▁journey	-10379
江南	-10380
干扰	-10381
ogan	-10382
分别是	-10383
列车	-10384
信誉	-10385
准则	-10386
▁assets	-10387
▁orders	-10388
▁usual	-10389
▁overwhel	-10390
时间的	-10391
▁Society	-10392
黑龙江	-10393
商家	-10394
世界的	-10395
ugh	-10396
ba	-10397
▁approval	-10398
▁congress	-10399
来信	-10400
sex	-10401
链接	-10402
完善的	-10403
▁universe	-10404
esc	-10405
luding	-10406
▁Cat	-10407
未能	-10408
▁surrounding	-10409
研究员	-10410
▁sister	-10411
look	-10412
▁battery	-10413
不动	-10414
河北省	-10415
▁Hollywood	-10416
ciples	-10417
▁opponents	-10418
▁deeply	-10419
年在	-10420
篮板	-10421
▁watched	-10422
跨境	-10423
宏观	-10424
雕塑	-10425
并于	-10426
源于	-10427
azi	-10428
二等奖	-10429
▁fasc	-10430
▁Bell	-10431
▁literally	-10432
▁teachers	-10433
昨天	-10434
解放	-10435
▁Cam	-10436
▁latter	-10437
sole	-10438
清单	-10439
▁Conf	-10440
突发	-10441
合计	-10442
▁subsid	-10443
背景下	-10444
从来	-10445
立法	-10446
缩短	-10447
真空	-10448
▁Kn	-10449
前沿	-10450
在一	-10451
dro	-10452
柴油	-10453
▁Italy	-10454
上级	-10455
▁Jordan	-10456
取代	-10457
mun	-10458
▁Click	-10459
海上	-10460
稳步	-10461
▁hall	-10462
戏剧	-10463
▁risks	-10464
风电	-10465
▁basket	-10466
▁communication	-10467
▁Night	-10468
燃气	-10469
▁Administ	-10470
超市	-10471
可谓	-10472
分会	-10473
▁king	-10474
aser	-10475
可持续发展	-10476
联合国	-10477
sa	-10478
人与	-10479
▁Light	-10480
▁folks	-10481
▁simpl	-10482
完整的	-10483
▁knowing	-10484
▁dealing	-10485
传说	-10486
ether	-10487
净水	-10488
iments	-10489
劳务	-10490
▁remote	-10491
主要有	-10492
▁Special	-10493
溶液	-10494
▁Steven	-10495
▁Georgia	-10496
▁observed	-10497
▁precise	-10498
产生了	-10499
▁narr	-10500
▁wal	-10501
巴巴	-10502
▁passion	-10503
How	-10504
▁sending	-10505
技术创新	-10506
▁Key	-10507
▁properties	-10508
矿山	-10509
lv	-10510
ceived	-10511
▁exciting	-10512
mo	-10513
公元	-10514
▁unemploy	-10515
EA	-10516
▁aside	-10517
我是	-10518
woman	-10519
▁explore	-10520
acking	-10521
wan	-10522
allas	-10523
首都	-10524
▁winter	-10525
好好	-10526
▁gap	-10527
▁wake	-10528
▁gang	-10529
▁refugees	-10530
前来	-10531
缺少	-10532
▁crash	-10533
拿到	-10534
还需要	-10535
月初	-10536
家中	-10537
警方	-10538
▁neut	-10539
▁fixed	-10540
日制	-10541
▁format	-10542
早已	-10543
生产经营	-10544
inson	-10545
ilding	-10546
▁Agency	-10547
po	-10548
▁requirements	-10549
▁exhib	-10550
▁noticed	-10551
贝尔	-10552
将是	-10553
那种	-10554
规章	-10555
也就是说	-10556
▁alive	-10557
rations	-10558
估计	-10559
▁volume	-10560
五个	-10561
开关	-10562
用药	-10563
助攻	-10564
损坏	-10565
门窗	-10566
rors	-10567
▁skill	-10568
mann	-10569
外资	-10570
这个问题	-10571
跟踪	-10572
▁mob	-10573
▁DNA	-10574
稳定的	-10575
▁Test	-10576
长城	-10577
便宜	-10578
gery	-10579
实的	-10580
推行	-10581
共建	-10582
▁tested	-10583
短期	-10584
格式	-10585
▁Disney	-10586
ingu	-10587
年上半年	-10588
iciency	-10589
▁Lew	-10590
生理	-10591
练习	-10592
abis	-10593
素养	-10594
变动	-10595
▁promised	-10596
ensity	-10597
onymous	-10598
科普	-10599
加强对	-10600
▁sky	-10601
avor	-10602
▁Gi	-10603
▁Rog	-10604
▁forth	-10605
余额	-10606
▁Pay	-10607
da	-10608
▁involving	-10609
▁terrorism	-10610
▁reward	-10611
被评为	-10612
合伙	-10613
▁Sn	-10614
器件	-10615
▁Business	-10616
▁Review	-10617
了很多	-10618
乘客	-10619
▁Call	-10620
▁Educ	-10621
的国家	-10622
▁Nick	-10623
▁Miami	-10624
▁protesters	-10625
▁selection	-10626
▁matches	-10627
搅拌	-10628
几天	-10629
▁blame	-10630
信念	-10631
度和	-10632
▁defeat	-10633
oration	-10634
▁diet	-10635
教室	-10636
▁locations	-10637
▁height	-10638
▁attacked	-10639
责令	-10640
TH	-10641
边缘	-10642
客房	-10643
▁shel	-10644
▁destroyed	-10645
▁Labor	-10646
▁sweet	-10647
▁conver	-10648
了中国	-10649
▁west	-10650
▁impressive	-10651
派出	-10652
▁eating	-10653
▁welcome	-10654
▁Moore	-10655
ura	-10656
▁mistake	-10657
▁extended	-10658
▁anyway	-10659
▁proof	-10660
VER	-10661
面上	-10662
身体健康	-10663
格兰	-10664
▁approximately	-10665
oster	-10666
的表现	-10667
▁promote	-10668
交叉	-10669
运转	-10670
ums	-10671
▁puts	-10672
DR	-10673
的公司	-10674
投票	-10675
acc	-10676
▁sho	-10677
决心	-10678
庆祝	-10679
apse	-10680
附加	-10681
主营	-10682
▁Spanish	-10683
征收	-10684
发改	-10685
▁phenomen	-10686
▁properly	-10687
远远	-10688
▁Oper	-10689
的城市	-10690
的人才	-10691
▁discover	-10692
在一个	-10693
▁requests	-10694
▁unknown	-10695
与其他	-10696
▁声明	-10697
cr	-10698
市级	-10699
▁territory	-10700
anges	-10701
坚决	-10702
激素	-10703
▁Academ	-10704
▁teacher	-10705
▁franchise	-10706
CR	-10707
’.	-10708
▁Ah	-10709
▁sustain	-10710
说话	-10711
▁Irish	-10712
owered	-10713
fire	-10714
▁theme	-10715
▁northern	-10716
▁sample	-10717
进取	-10718
▁Unfortunately	-10719
巨头	-10720
首个	-10721
考虑到	-10722
▁retire	-10723
intend	-10724
米的	-10725
▁Victor	-10726
▁typical	-10727
CA	-10728
▁diagn	-10729
道理	-10730
具有良好的	-10731
一生	-10732
管理人员	-10733
▁nomine	-10734
▁Hun	-10735
▁merely	-10736
▁pal	-10737
▁Bru	-10738
oming	-10739
▁chose	-10740
木材	-10741
耶稣	-10742
生意	-10743
口腔	-10744
化合物	-10745
师范大学	-10746
log	-10747
▁wid	-10748
的优势	-10749
限于	-10750
真诚	-10751
▁license	-10752
轨道交通	-10753
▁moder	-10754
▁suddenly	-10755
太平	-10756
缴费	-10757
泡沫	-10758
▁maximum	-10759
不住	-10760
你会	-10761
品的	-10762
几十	-10763
▁worried	-10764
▁dry	-10765
▁Care	-10766
▁deals	-10767
养成	-10768
▁wage	-10769
人心	-10770
▁Cross	-10771
电竞	-10772
条款	-10773
的一切	-10774
▁Dark	-10775
itarian	-10776
▁disag	-10777
verty	-10778
▁narrow	-10779
▁recognize	-10780
alo	-10781
▁topic	-10782
▁east	-10783
▁因此	-10784
的天	-10785
好处	-10786
▁slowly	-10787
▁selected	-10788
本来	-10789
马克	-10790
上班	-10791
▁oblig	-10792
ixt	-10793
▁其实	-10794
▁Fre	-10795
▁Global	-10796
不想	-10797
▁Asian	-10798
▁adapt	-10799
▁confront	-10800
ocation	-10801
门店	-10802
VR	-10803
互联	-10804
践行	-10805
▁Attorney	-10806
osis	-10807
▁supports	-10808
侵犯了	-10809
pool	-10810
▁poverty	-10811
追究	-10812
▁Which	-10813
特种	-10814
越来越多的	-10815
era	-10816
▁Joseph	-10817
celer	-10818
FA	-10819
不受	-10820
高品质	-10821
▁fees	-10822
回来	-10823
▁allies	-10824
▁Ult	-10825
▁rub	-10826
list	-10827
不太	-10828
一同	-10829
复制	-10830
明天	-10831
企业家	-10832
赢得了	-10833
▁Coll	-10834
▁ped	-10835
我就	-10836
▁IT	-10837
▁assume	-10838
的成绩	-10839
▁Sea	-10840
匹配	-10841
枢纽	-10842
ayers	-10843
过敏	-10844
不断的	-10845
债权	-10846
mpt	-10847
相反	-10848
▁likes	-10849
男人	-10850
▁Josh	-10851
直辖市	-10852
加以	-10853
网络安全	-10854
▁critics	-10855
▁harass	-10856
izz	-10857
▁Services	-10858
较多	-10859
征求意见稿	-10860
人气	-10861
题材	-10862
是为了	-10863
▁Program	-10864
▁AL	-10865
▁facilities	-10866
aug	-10867
SL	-10868
全身	-10869
▁arguments	-10870
东莞	-10871
▁journalists	-10872
家政	-10873
▁abortion	-10874
iner	-10875
的朋友	-10876
redit	-10877
罗马	-10878
火车	-10879
搭载	-10880
火箭	-10881
▁scheme	-10882
汇报	-10883
▁honor	-10884
窗口	-10885
▁Jersey	-10886
gender	-10887
男女	-10888
▁Ut	-10889
uan	-10890
▁Senator	-10891
忽视	-10892
▁controlled	-10893
不可能	-10894
▁obtained	-10895
name	-10896
发生的	-10897
帮扶	-10898
幅度	-10899
▁somehow	-10900
▁Turk	-10901
超声	-10902
项目建设	-10903
owa	-10904
▁squad	-10905
▁sole	-10906
▁resistance	-10907
▁communications	-10908
厨房	-10909
asks	-10910
年中国	-10911
▁transp	-10912
▁understood	-10913
unning	-10914
raid	-10915
一次性	-10916
▁Live	-10917
▁pic	-10918
▁regions	-10919
▁dress	-10920
生育	-10921
语音	-10922
▁village	-10923
大脑	-10924
▁现在	-10925
pes	-10926
公积	-10927
颁发	-10928
▁polls	-10929
▁limits	-10930
%.	-10931
前进	-10932
oric	-10933
▁Source	-10934
目的地	-10935
arity	-10936
残疾	-10937
过来	-10938
▁condem	-10939
▁Scotland	-10940
更高的	-10941
▁NHL	-10942
▁personally	-10943
▁constant	-10944
推出了	-10945
组成的	-10946
lder	-10947
▁Such	-10948
厚度	-10949
农药	-10950
▁drag	-10951
助理	-10952
病因	-10953
Sp	-10954
放心	-10955
一度	-10956
▁equival	-10957
▁bunch	-10958
lla	-10959
有效地	-10960
▁Thus	-10961
▁exposed	-10962
挂牌	-10963
▁Tem	-10964
工程技术	-10965
是我国	-10966
▁stim	-10967
给我	-10968
▁phase	-10969
▁profit	-10970
rett	-10971
▁comparison	-10972
▁Anth	-10973
▁strongly	-10974
rimination	-10975
年内	-10976
智能手机	-10977
cow	-10978
▁Report	-10979
机构的	-10980
的食物	-10981
又有	-10982
▁Never	-10983
▁Taylor	-10984
伟大	-10985
标识	-10986
沉淀	-10987
所属	-10988
▁winner	-10989
邮政	-10990
▁escape	-10991
▁thread	-10992
VD	-10993
缺点	-10994
产业化	-10995
路径	-10996
▁emissions	-10997
iform	-10998
▁Kelly	-10999
▁vacc	-11000
▁somewhere	-11001
懂得	-11002
asts	-11003
却是	-11004
▁flex	-11005
▁falling	-11006
警察	-11007
的风险	-11008
▁Nations	-11009
安徽省	-11010
ker	-11011
▁bid	-11012
快捷	-11013
第七	-11014
▁punish	-11015
▁champion	-11016
onic	-11017
荷兰	-11018
暂停	-11019
跨越	-11020
▁meetings	-11021
将来	-11022
▁deck	-11023
肌肉	-11024
enders	-11025
zens	-11026
长度	-11027
▁CH	-11028
TE	-11029
▁encourage	-11030
▁database	-11031
早上	-11032
在使用	-11033
的支持	-11034
内地	-11035
▁comprom	-11036
▁southern	-11037
▁Os	-11038
▁truck	-11039
▁decent	-11040
空中	-11041
▁employee	-11042
下半年	-11043
阿尔	-11044
▁Food	-11045
制成	-11046
的文化	-11047
▁definition	-11048
一部	-11049
的风	-11050
cers	-11051
承载	-11052
aire	-11053
▁cutting	-11054
节点	-11055
▁Civil	-11056
▁dogs	-11057
交付	-11058
哈尔	-11059
注入	-11060
▁evil	-11061
带头	-11062
共赢	-11063
igation	-11064
sea	-11065
***	-11066
▁OS	-11067
▁Has	-11068
▁bear	-11069
▁Tony	-11070
▁因为	-11071
爱国	-11072
▁fuck	-11073
经历了	-11074
sters	-11075
▁claiming	-11076
▁item	-11077
尽可能	-11078
At	-11079
▁MS	-11080
爆炸	-11081
▁bench	-11082
pected	-11083
里程	-11084
平面	-11085
的高度	-11086
排除	-11087
▁goods	-11088
留在	-11089
▁Lim	-11090
老年人	-11091
▁Orig	-11092
▁directed	-11093
▁desper	-11094
市区	-11095
▁empty	-11096
公正	-11097
▁officially	-11098
受伤	-11099
采访时	-11100
▁gotten	-11101
post	-11102
▁fifth	-11103
将以	-11104
建筑物	-11105
lls	-11106
▁stronger	-11107
▁inqu	-11108
类型的	-11109
▁Dallas	-11110
▁deleg	-11111
零件	-11112
作文	-11113
水分	-11114
灵魂	-11115
▁~	-11116
新冠肺炎疫情	-11117
解读	-11118
▁developer	-11119
黄河	-11120
▁trees	-11121
看到了	-11122
暴雨	-11123
▁Foreign	-11124
▁ruled	-11125
vy	-11126
nesota	-11127
联邦	-11128
从小	-11129
▁Indeed	-11130
出版社	-11131
公众号	-11132
▁Spain	-11133
asters	-11134
本公司	-11135
加油	-11136
游泳	-11137
装配	-11138
生产企业	-11139
▁Italian	-11140
▁anx	-11141
高职	-11142
湿度	-11143
▁ideal	-11144
▁Series	-11145
▁Come	-11146
▁hits	-11147
结论	-11148
▁electricity	-11149
▁payments	-11150
rary	-11151
值得一	-11152
改编	-11153
▁reveal	-11154
▁chosen	-11155
视频网站	-11156
▁icon	-11157
▁driven	-11158
的标准	-11159
▁stretch	-11160
的经济	-11161
▁spin	-11162
小米	-11163
ultural	-11164
不见	-11165
▁threatened	-11166
给你	-11167
证实	-11168
▁purposes	-11169
的发生	-11170
▁Championship	-11171
冲突	-11172
▁drawn	-11173
▁ending	-11174
恒大	-11175
排查	-11176
▁Data	-11177
▁Ray	-11178
增幅	-11179
▁amounts	-11180
的现象	-11181
▁retain	-11182
▁upper	-11183
话题	-11184
▁ties	-11185
页第	-11186
▁finds	-11187
eping	-11188
反对	-11189
的多	-11190
▁extensive	-11191
马来西亚	-11192
fast	-11193
我觉得	-11194
繁荣	-11195
牢记	-11196
倡导	-11197
前后	-11198
▁colon	-11199
高等教育	-11200
仿佛	-11201
▁Lo	-11202
与中国	-11203
isan	-11204
是很	-11205
走出	-11206
我们将在	-11207
▁rejected	-11208
ali	-11209
▁boot	-11210
的合作	-11211
ser	-11212
▁Dead	-11213
▁intellect	-11214
▁primarily	-11215
▁pod	-11216
▁VR	-11217
向社会	-11218
."[	-11219
ye	-11220
▁NBC	-11221
公积金	-11222
位居	-11223
涉嫌	-11224
TP	-11225
那就是	-11226
性好	-11227
平方公里	-11228
战胜	-11229
▁captured	-11230
regon	-11231
EG	-11232
师资	-11233
▁trading	-11234
▁technologies	-11235
旋转	-11236
发展和	-11237
▁rig	-11238
的教育	-11239
▁reasonable	-11240
▁seats	-11241
探测	-11242
icken	-11243
▁fold	-11244
essed	-11245
▁answers	-11246
▁fighters	-11247
瑞士	-11248
创新创业	-11249
又是	-11250
▁admit	-11251
选拔	-11252
海关	-11253
▁aspects	-11254
▁solutions	-11255
一支	-11256
电磁	-11257
▁engage	-11258
退出	-11259
========	-11260
owed	-11261
预警	-11262
联动	-11263
inity	-11264
++	-11265
领导小组	-11266
▁History	-11267
▁constantly	-11268
中小学	-11269
处理与	-11270
▁distinct	-11271
类别	-11272
亮点	-11273
▁Southern	-11274
要想	-11275
▁ble	-11276
▁choices	-11277
了对	-11278
姓名	-11279
纪委	-11280
大奖	-11281
▁somebody	-11282
kg	-11283
▁param	-11284
复印件	-11285
iana	-11286
irms	-11287
小于	-11288
渐渐	-11289
▁actor	-11290
▁perfectly	-11291
▁rival	-11292
除此之外	-11293
直径	-11294
▁payment	-11295
▁constit	-11296
▁parking	-11297
tes	-11298
▁Following	-11299
联合会	-11300
▁Ol	-11301
的态度	-11302
▁resulting	-11303
青睐	-11304
inding	-11305
sm	-11306
▁regularly	-11307
市长	-11308
▁sight	-11309
lock	-11310
公布的	-11311
ras	-11312
▁estimates	-11313
之地	-11314
数十	-11315
▁houses	-11316
兴奋	-11317
RS	-11318
▁profile	-11319
▁incl	-11320
▁contem	-11321
))	-11322
star	-11323
▁fields	-11324
▁baseball	-11325
otes	-11326
▁courts	-11327
陕西省	-11328
▁soul	-11329
aron	-11330
曝光	-11331
▁narrative	-11332
mod	-11333
▁Minnesota	-11334
▁anymore	-11335
服务平台	-11336
▁elsewhere	-11337
▁encoun	-11338
性强	-11339
elect	-11340
试图	-11341
▁outcome	-11342
▁flying	-11343
▁Balt	-11344
▁Have	-11345
▁tank	-11346
▁Bowl	-11347
地板	-11348
举办的	-11349
▁province	-11350
域名	-11351
earing	-11352
▁worldwide	-11353
坐落	-11354
复杂的	-11355
rehens	-11356
otten	-11357
▁apartment	-11358
五一	-11359
极为	-11360
▁Start	-11361
场上	-11362
aland	-11363
▁nobody	-11364
抓好	-11365
▁Major	-11366
丈夫	-11367
▁Foot	-11368
▁contributed	-11369
一期	-11370
▁concluded	-11371
▁bills	-11372
▁founder	-11373
inations	-11374
不予	-11375
▁Make	-11376
▁awesome	-11377
人民群众	-11378
年起	-11379
审议	-11380
▁mayor	-11381
▁situations	-11382
Our	-11383
亲自	-11384
▁keeps	-11385
▁letters	-11386
黑色素	-11387
▁mixed	-11388
▁Greg	-11389
mont	-11390
主要用于	-11391
的人员	-11392
发布会	-11393
▁Rick	-11394
▁Full	-11395
▁components	-11396
切割	-11397
inder	-11398
力争	-11399
▁exists	-11400
坚守	-11401
年至	-11402
的有	-11403
回顾	-11404
▁Roman	-11405
聘用	-11406
镀锌	-11407
调控	-11408
曾在	-11409
▁Music	-11410
询问	-11411
▁signal	-11412
you	-11413
▁Id	-11414
▁incredible	-11415
▁%	-11416
只提供	-11417
▁Jason	-11418
多元化	-11419
▁employment	-11420
心态	-11421
赋予	-11422
ifer	-11423
▁Development	-11424
不仅是	-11425
护士	-11426
iro	-11427
特色的	-11428
深深	-11429
一座	-11430
等多个	-11431
领取	-11432
这场	-11433
周末	-11434
负荷	-11435
作了	-11436
▁ticket	-11437
▁Bull	-11438
认同	-11439
▁coalition	-11440
▁je	-11441
与其	-11442
事务所	-11443
UN	-11444
考验	-11445
上网	-11446
阿里巴巴	-11447
▁crucial	-11448
▁clients	-11449
中部	-11450
著作权	-11451
▁drinking	-11452
▁atmosphere	-11453
usse	-11454
▁·	-11455
▁enthus	-11456
供水	-11457
▁Pacific	-11458
ui	-11459
特殊的	-11460
疗法	-11461
▁Ali	-11462
aun	-11463
▁controls	-11464
▁feedback	-11465
铝合金	-11466
的投资	-11467
▁kil	-11468
客人	-11469
应该是	-11470
▁?	-11471
▁incredibly	-11472
圆形	-11473
微软	-11474
在本	-11475
▁Sever	-11476
▁category	-11477
▁brew	-11478
房产	-11479
漂亮	-11480
▁Constitution	-11481
▁continuing	-11482
▁informed	-11483
一个月	-11484
▁由	-11485
▁reporter	-11486
▁这个	-11487
▁assistant	-11488
假日	-11489
▁地址	-11490
有机会	-11491
▁tied	-11492
人人	-11493
不符合	-11494
服用	-11495
受到了	-11496
结算	-11497
业态	-11498
上映	-11499
bal	-11500
▁registered	-11501
▁Ash	-11502
anny	-11503
雇主	-11504
htt	-11505
▁unp	-11506
▁demands	-11507
▁accurate	-11508
▁dozen	-11509
chain	-11510
icer	-11511
thon	-11512
▁bitcoin	-11513
▁weird	-11514
地域	-11515
经济学	-11516
民事	-11517
▁routine	-11518
▁angry	-11519
apes	-11520
▁Jac	-11521
处分	-11522
石化	-11523
▁Mu	-11524
积分	-11525
相继	-11526
▁newly	-11527
▁terrible	-11528
:《	-11529
一部分	-11530
界面	-11531
▁Hom	-11532
imp	-11533
工程建设	-11534
▁stuck	-11535
▁($	-11536
家乡	-11537
▁Henry	-11538
▁generate	-11539
ilarly	-11540
thew	-11541
▁stead	-11542
我会	-11543
rage	-11544
具体的	-11545
phia	-11546
▁Nation	-11547
▁SP	-11548
出资	-11549
省份	-11550
▁conven	-11551
▁raising	-11552
▁Parliament	-11553
▁Hard	-11554
传动	-11555
▁enemies	-11556
纳米	-11557
新材料	-11558
▁machines	-11559
年以上	-11560
▁loan	-11561
rates	-11562
管控	-11563
社会责任	-11564
或其他	-11565
誉为	-11566
过去的	-11567
▁rus	-11568
西藏	-11569
▁Oregon	-11570
▁complaint	-11571
prise	-11572
acked	-11573
▁CO	-11574
▁关于	-11575
▁Fred	-11576
层的	-11577
orted	-11578
onsin	-11579
▁returning	-11580
投放	-11581
anchester	-11582
皇帝	-11583
采用了	-11584
跟着	-11585
都很	-11586
▁writers	-11587
强劲	-11588
全县	-11589
▁excess	-11590
前列	-11591
笔者	-11592
说过	-11593
立体	-11594
▁proved	-11595
▁recovery	-11596
▁dollar	-11597
emen	-11598
提出的	-11599
▁Fund	-11600
▁Prote	-11601
▁represented	-11602
▁gaming	-11603
▁explanation	-11604
合法权益	-11605
▁innoc	-11606
isconsin	-11607
▁paint	-11608
▁aggressive	-11609
bn	-11610
这对	-11611
的游戏	-11612
不断地	-11613
十二条	-11614
actions	-11615
lers	-11616
自行车	-11617
会出现	-11618
接口	-11619
One	-11620
科学研究	-11621
▁imper	-11622
再度	-11623
终止	-11624
iscal	-11625
体现了	-11626
▁programming	-11627
rene	-11628
优越	-11629
种种	-11630
变频	-11631
▁gro	-11632
▁Hor	-11633
▁conclusion	-11634
转向	-11635
▁roster	-11636
售价	-11637
▁Kent	-11638
瞬间	-11639
ca	-11640
即便	-11641
正如	-11642
▁compens	-11643
▁myth	-11644
为一体的	-11645
▁consumption	-11646
修行	-11647
▁Moscow	-11648
密集	-11649
▁granted	-11650
全日制	-11651
可用	-11652
安全的	-11653
UL	-11654
市场需求	-11655
▁conspir	-11656
适宜	-11657
严谨	-11658
▁nut	-11659
adelphia	-11660
删除	-11661
迪士	-11662
▁interpret	-11663
单纯	-11664
商会	-11665
注册资本	-11666
amsung	-11667
▁capture	-11668
绝缘	-11669
离不开	-11670
能耗	-11671
▁lawmakers	-11672
黄色	-11673
▁complicated	-11674
Script	-11675
例子	-11676
▁manip	-11677
私人	-11678
市值	-11679
▁organized	-11680
扫描	-11681
▁shares	-11682
迪士尼	-11683
便于	-11684
hips	-11685
there	-11686
报价	-11687
届中国	-11688
一周	-11689
▁estate	-11690
▁此	-11691
▁Snow	-11692
钢板	-11693
ifications	-11694
rete	-11695
rypt	-11696
gorith	-11697
▁不	-11698
▁penalty	-11699
▁county	-11700
阿拉	-11701
▁pilot	-11702
▁successfully	-11703
▁scenes	-11704
新城	-11705
浪漫	-11706
▁conscious	-11707
五大	-11708
▁habit	-11709
▁Arm	-11710
▁Judge	-11711
发酵	-11712
降雨	-11713
▁LGBT	-11714
个别	-11715
让他们	-11716
ni	-11717
▁plastic	-11718
溶剂	-11719
的所有	-11720
步骤	-11721
漫画	-11722
▁chances	-11723
壮大	-11724
ked	-11725
▁tall	-11726
是从	-11727
同行	-11728
的老	-11729
功夫	-11730
▁root	-11731
Photo	-11732
▁audio	-11733
▁’	-11734
是要	-11735
细致	-11736
用心	-11737
itar	-11738
传统文化	-11739
▁OK	-11740
一定会	-11741
解决了	-11742
进攻	-11743
▁magic	-11744
▁assistance	-11745
诱发	-11746
▁Iowa	-11747
建筑工程	-11748
开了	-11749
亮相	-11750
▁Avenue	-11751
▁Northern	-11752
装机	-11753
较好的	-11754
▁therap	-11755
出具	-11756
▁veteran	-11757
▁titles	-11758
多了	-11759
来讲	-11760
▁index	-11761
信赖	-11762
内在	-11763
▁degrees	-11764
中山	-11765
▁anticip	-11766
每一位	-11767
▁attended	-11768
hent	-11769
cus	-11770
Donald	-11771
玉米	-11772
▁engaged	-11773
izon	-11774
▁techniques	-11775
单位的	-11776
▁aimed	-11777
再加上	-11778
▁academic	-11779
▁permanent	-11780
itals	-11781
关怀	-11782
▁Does	-11783
年间	-11784
相机	-11785
▁iron	-11786
也为	-11787
▁phr	-11788
在新	-11789
▁Hit	-11790
▁SH	-11791
▁Mid	-11792
▁cup	-11793
Man	-11794
▁monit	-11795
▁sympt	-11796
▁Education	-11797
▁automatically	-11798
流域	-11799
▁lawyers	-11800
▁extract	-11801
idency	-11802
提起	-11803
~~	-11804
成品	-11805
为准	-11806
▁Point	-11807
摩擦	-11808
▁Video	-11809
▁Bry	-11810
听取	-11811
▁survive	-11812
athy	-11813
▁Moh	-11814
▁solve	-11815
▁ESP	-11816
塑造	-11817
医疗机构	-11818
商店	-11819
房价	-11820
贵司	-11821
▁Coast	-11822
▁western	-11823
收取	-11824
▁blocks	-11825
均系	-11826
▁Through	-11827
▁extrem	-11828
▁Market	-11829
战略合作	-11830
▁installed	-11831
▁teaching	-11832
flix	-11833
滴滴	-11834
起重机	-11835
注意的是	-11836
五金	-11837
world	-11838
温泉	-11839
众生	-11840
的不同	-11841
事宜	-11842
▁Viet	-11843
▁List	-11844
▁fake	-11845
▁overse	-11846
▁Wisconsin	-11847
信仰	-11848
身为	-11849
成立了	-11850
▁bom	-11851
我们就	-11852
▁Alab	-11853
蒸汽	-11854
顺序	-11855
▁operate	-11856
ria	-11857
一人	-11858
校友	-11859
▁pin	-11860
ez	-11861
码头	-11862
▁marked	-11863
▁AI	-11864
▁Oak	-11865
小心	-11866
的就是	-11867
▁Kir	-11868
TO	-11869
地处	-11870
▁rating	-11871
▁satell	-11872
忘记	-11873
▁recording	-11874
护栏	-11875
熟练	-11876
▁Eastern	-11877
AB	-11878
▁taste	-11879
巩固	-11880
他是	-11881
▁warming	-11882
▁Pen	-11883
▁racial	-11884
▁ru	-11885
WE	-11886
协商	-11887
rific	-11888
选举	-11889
rating	-11890
▁Set	-11891
▁depending	-11892
珍惜	-11893
obs	-11894
▁ads	-11895
▁visited	-11896
ilton	-11897
olt	-11898
的比例	-11899
▁worker	-11900
青海	-11901
▁vulnerable	-11902
FF	-11903
bro	-11904
▁downtown	-11905
▁valuable	-11906
▁accomp	-11907
▁collected	-11908
▁陈	-11909
的海	-11910
三级	-11911
备受	-11912
▁ok	-11913
建设和	-11914
大专	-11915
mal	-11916
较好	-11917
▁taught	-11918
高科技	-11919
▁dict	-11920
工作室	-11921
▁Rand	-11922
化和	-11923
供电	-11924
得知	-11925
▁Kurd	-11926
▁privile	-11927
▁pace	-11928
▁Philadelphia	-11929
造价	-11930
▁Policy	-11931
▁championship	-11932
疑问	-11933
azz	-11934
试管	-11935
▁regardless	-11936
▁uncertain	-11937
▁inspir	-11938
▁advis	-11939
▁enable	-11940
悠久	-11941
▁reputation	-11942
▁phones	-11943
▁cable	-11944
视角	-11945
▁hidden	-11946
消费者的	-11947
算是	-11948
aed	-11949
▁hel	-11950
开业	-11951
若本站	-11952
推出的	-11953
该项目	-11954
uine	-11955
只需	-11956
邮箱地址	-11957
的其他	-11958
▁surgery	-11959
ibilities	-11960
的教学	-11961
两者	-11962
其中包括	-11963
上去	-11964
合资	-11965
先锋	-11966
长安	-11967
▁Using	-11968
学费	-11969
收集于	-11970
烦恼	-11971
无意侵犯了	-11972
▁Plus	-11973
发性	-11974
观赏	-11975
播出	-11976
硬度	-11977
当今	-11978
奥运会	-11979
年末	-11980
若本站收录	-11981
▁comic	-11982
▁Fair	-11983
NBA	-11984
单位和	-11985
饲料	-11986
▁elite	-11987
▁prominent	-11988
▁crypt	-11989
得分	-11990
从未	-11991
产业园	-11992
请给	-11993
并与	-11994
新产品	-11995
▁Manchester	-11996
▁afraid	-11997
▁busy	-11998
参与录制	-11999
▁negotiations	-12000
▁troub	-12001
▁bes	-12002
ules	-12003
▁Mir	-12004
政策的	-12005
口碑	-12006
仓储	-12007
▁tracks	-12008
▁Greek	-12009
眼镜	-12010
皮肤病	-12011
坐在	-12012
票房	-12013
的国际	-12014
▁passes	-12015
▁Use	-12016
图案	-12017
▁Without	-12018
▁pounds	-12019
古老	-12020
创造了	-12021
▁McG	-12022
一季度	-12023
广州市	-12024
高血压	-12025
▁Ros	-12026
etary	-12027
天地	-12028
聚合	-12029
次数	-12030
Pe	-12031
▁Mayor	-12032
quarters	-12033
▁mainly	-12034
等于	-12035
▁enjoyed	-12036
远离	-12037
相关资源	-12038
aturally	-12039
urb	-12040
为本	-12041
month	-12042
ashes	-12043
这时	-12044
▁elev	-12045
▁apolog	-12046
迎接	-12047
▁sufficient	-12048
下来的	-12049
▁equivalent	-12050
scape	-12051
无意侵犯了贵司	-12052
随意	-12053
给人	-12054
▁disaster	-12055
副总裁	-12056
▁generated	-12057
▁spr	-12058
不含	-12059
▁emerged	-12060
史上	-12061
发生在	-12062
月中	-12063
各大视频网站	-12064
▁principles	-12065
▁resulted	-12066
有没有	-12067
让学生	-12068
▁thin	-12069
我们将在第一时间	-12070
无意侵犯了贵司版权	-12071
目的是	-12072
uer	-12073
业内人士	-12074
▁grant	-12075
▁brut	-12076
▁Hay	-12077
▁personnel	-12078
▁funny	-12079
▁Sir	-12080
▁compete	-12081
eland	-12082
焦虑	-12083
▁Pack	-12084
▁adopted	-12085
▁duty	-12086
竟然	-12087
安置	-12088
▁entit	-12089
▁stations	-12090
▁engineering	-12091
TR	-12092
▁portion	-12093
并不提供	-12094
▁mail	-12095
热点	-12096
古典	-12097
真是	-12098
和中国	-12099
▁Navy	-12100
的具体	-12101
违约	-12102
资源存储	-12103
肠道	-12104
的前提	-12105
南北	-12106
减排	-12107
▁Royal	-12108
▁exposure	-12109
▁medium	-12110
▁Professor	-12111
副总经理	-12112
监理	-12113
说道	-12114
iler	-12115
▁intense	-12116
流水	-12117
▁unusual	-12118
▁defence	-12119
什么是	-12120
rently	-12121
▁Zealand	-12122
建设工程	-12123
▁Rose	-12124
入境	-12125
▁browser	-12126
元件	-12127
医护	-12128
▁gall	-12129
换热	-12130
▁Harry	-12131
▁describes	-12132
▁corruption	-12133
嫌疑	-12134
▁刘	-12135
active	-12136
▁trib	-12137
lan	-12138
未成年	-12139
页面服务	-12140
arsh	-12141
定价	-12142
公安局	-12143
东南亚	-12144
会对	-12145
▁extension	-12146
▁Inte	-12147
通过了	-12148
▁Luc	-12149
抵达	-12150
截至目前	-12151
办公厅	-12152
▁taxp	-12153
fall	-12154
▁processes	-12155
小游戏	-12156
也不参与录制	-12157
▁Alabama	-12158
▁Sometimes	-12159
upid	-12160
▁fought	-12161
行政部门	-12162
▁hadn	-12163
EP	-12164
▁minority	-12165
的手	-12166
影片资源存储	-12167
▁Scient	-12168
安全性	-12169
antic	-12170
▁上传	-12171
▁patterns	-12172
ogen	-12173
umer	-12174
教育局	-12175
▁当然	-12176
icate	-12177
▁rarely	-12178
▁Little	-12179
欧美	-12180
后者	-12181
利息	-12182
热水器	-12183
并购	-12184
玩具	-12185
▁discipl	-12186
▁cameras	-12187
形成的	-12188
ima	-12189
▁contracts	-12190
新一代	-12191
邮箱地址来信	-12192
频繁	-12193
▁Reuters	-12194
ja	-12195
▁cited	-12196
▁shortly	-12197
▁Premier	-12198
不出	-12199
▁coordin	-12200
等特点	-12201
并不提供影片资源存储	-12202
这家	-12203
cles	-12204
ilipp	-12205
▁everywhere	-12206
本网站只提供	-12207
▁Nic	-12208
idelines	-12209
▁inev	-12210
水库	-12211
▁finance	-12212
ho	-12213
级的	-12214
噪音	-12215
▁expectations	-12216
▁blind	-12217
会导致	-12218
▁explicit	-12219
行业协会	-12220
core	-12221
当你	-12222
大楼	-12223
viously	-12224
▁Ext	-12225
orough	-12226
inking	-12227
▁Amendment	-12228
艰难	-12229
充分利用	-12230
▁propag	-12231
▁chat	-12232
给我们	-12233
潮流	-12234
▁possession	-12235
front	-12236
▁strict	-12237
NS	-12238
返回	-12239
均系收集于	-12240
▁enorm	-12241
bell	-12242
▁recip	-12243
情怀	-12244
调解	-12245
医疗器械	-12246
分辨	-12247
▁firms	-12248
不及	-12249
▁Sat	-12250
均系收集于各大视频网站	-12251
擅长	-12252
▁dim	-12253
cling	-12254
全国各地	-12255
发热	-12256
关爱	-12257
▁sanctions	-12258
石墨	-12259
还可	-12260
省委	-12261
回复谢谢	-12262
――	-12263
Pad	-12264
HP	-12265
大战	-12266
增多	-12267
十一条	-12268
钢材	-12269
▁participate	-12270
平凡	-12271
▁Given	-12272
▁shit	-12273
姆斯	-12274
RC	-12275
这段	-12276
▁Radio	-12277
我们将在第一时间处理与	-12278
我们将在第一时间处理与回复谢谢	-12279
请给邮箱地址来信	-12280
将为	-12281
weet	-12282
▁recru	-12283
▁Several	-12284
商场	-12285
Oh	-12286
▁thick	-12287
ifies	-12288
高新技术企业	-12289
下游	-12290
报记者	-12291
伴随着	-12292
▁sup	-12293
编码	-12294
博览会	-12295
一套	-12296
实质	-12297
▁permission	-12298
出现的	-12299
又称	-12300
不合格	-12301
颁奖	-12302
而来	-12303
gun	-12304
阵容	-12305
▁Academy	-12306
美容	-12307
仅为	-12308
导航	-12309
以下的	-12310
istent	-12311
广泛的	-12312
▁Atlanta	-12313
ogether	-12314
▁advertising	-12315
▁feelings	-12316
改革开放	-12317
相关资源均系收集于各大视频网站	-12318
▁sharp	-12319
▁mel	-12320
发改委	-12321
上帝	-12322
门口	-12323
这座	-12324
民营企业	-12325
中外	-12326
中所	-12327
▁Lind	-12328
个性化	-12329
废弃	-12330
test	-12331
▁losses	-12332
▁McCain	-12333
▁Fed	-12334
解答	-12335
契机	-12336
水电	-12337
约翰	-12338
一款	-12339
建于	-12340
▁www	-12341
在其	-12342
▁ho	-12343
各方	-12344
▁Centre	-12345
▁Information	-12346
ATE	-12347
▁Stat	-12348
ext	-12349
▁priority	-12350
▁今天	-12351
奖金	-12352
也被	-12353
making	-12354
评定	-12355
▁tag	-12356
▁Intell	-12357
▁Kingdom	-12358
医院的	-12359
希腊	-12360
▁Ly	-12361
▁cerem	-12362
▁unw	-12363
花费	-12364
▁Core	-12365
聚丙烯	-12366
CEO	-12367
已被	-12368
资源的	-12369
▁acceler	-12370
一段时间	-12371
▁visible	-12372
▁scenario	-12373
专业化	-12374
利的	-12375
疲劳	-12376
但他	-12377
eding	-12378
让自己	-12379
哪个	-12380
分析师	-12381
▁plug	-12382
多彩	-12383
虚假	-12384
▁dozens	-12385
abs	-12386
▁Sony	-12387
经济增长	-12388
▁historic	-12389
不上	-12390
对我	-12391
学金	-12392
投资基金	-12393
▁implementation	-12394
igen	-12395
aska	-12396
▁Head	-12397
found	-12398
▁thousand	-12399
▁affili	-12400
▁Conference	-12401
从业人员	-12402
▁tor	-12403
imore	-12404
▁lights	-12405
法治	-12406
umin	-12407
▁Administration	-12408
钢琴	-12409
十三条	-12410
为期	-12411
ouch	-12412
▁Matthew	-12413
督促	-12414
▁前	-12415
▁ju	-12416
��	-12417
▁clubs	-12418
▁Field	-12419
看法	-12420
二手	-12421
世界各地	-12422
▁yield	-12423
▁scoring	-12424
▁bridge	-12425
▁laid	-12426
▁formal	-12427
进行的	-12428
十三五	-12429
▁wing	-12430
中华民族	-12431
布置	-12432
ystem	-12433
坚实	-12434
mate	-12435
▁Kat	-12436
▁basketball	-12437
见到	-12438
▁gained	-12439
ounced	-12440
第二次	-12441
▁III	-12442
指示	-12443
▁obst	-12444
▁ven	-12445
▁computers	-12446
历经	-12447
▁creates	-12448
▁Turkish	-12449
主张	-12450
▁fee	-12451
惊喜	-12452
▁photograph	-12453
总承包	-12454
▁counsel	-12455
▁algorith	-12456
athered	-12457
▁loud	-12458
▁interface	-12459
▁shock	-12460
如同	-12461
etime	-12462
样子	-12463
▁founded	-12464
比分	-12465
▁uncom	-12466
▁veget	-12467
不低于	-12468
▁Patrick	-12469
目前的	-12470
▁Email	-12471
▁strikes	-12472
;(	-12473
▁Jay	-12474
精力	-12475
▁cyber	-12476
▁airport	-12477
profit	-12478
osexual	-12479
银行业	-12480
均可	-12481
▁WH	-12482
这份	-12483
orne	-12484
▁Cre	-12485
说是	-12486
ami	-12487
▁Look	-12488
▁agric	-12489
新型冠状病毒	-12490
摄像	-12491
asion	-12492
▁behalf	-12493
风光	-12494
噪声	-12495
精英	-12496
▁Battle	-12497
无锡	-12498
将对	-12499
的三	-12500
▁Gov	-12501
隐私	-12502
的两	-12503
she	-12504
MC	-12505
eman	-12506
▁stadium	-12507
年后	-12508
▁Independ	-12509
▁uniform	-12510
▁toler	-12511
从中	-12512
olis	-12513
▁manufacturing	-12514
级别	-12515
值得一提	-12516
▁relief	-12517
患有	-12518
▁establishment	-12519
善于	-12520
▁Link	-12521
▁genuine	-12522
who	-12523
▁Related	-12524
场合	-12525
叫做	-12526
▁Diego	-12527
加密	-12528
代替	-12529
▁fault	-12530
▁Es	-12531
interest	-12532
▁ABC	-12533
pread	-12534
离婚	-12535
▁Circ	-12536
▁stable	-12537
▁Ha	-12538
▁Anthony	-12539
周岁	-12540
麻烦	-12541
宿舍	-12542
不停	-12543
oen	-12544
amber	-12545
iti	-12546
uce	-12547
▁Bernie	-12548
的那	-12549
▁footage	-12550
▁component	-12551
▁天	-12552
中最	-12553
传达	-12554
耐腐蚀	-12555
▁exception	-12556
ded	-12557
出色	-12558
焦点	-12559
调试	-12560
有权	-12561
▁wonderful	-12562
既然	-12563
相关负责人	-12564
警告	-12565
▁journalist	-12566
之旅	-12567
▁FC	-12568
▁NAT	-12569
▁Whether	-12570
生产和	-12571
模范	-12572
▁ridic	-12573
部队	-12574
▁Square	-12575
▁banned	-12576
借鉴	-12577
垂直	-12578
▁Hell	-12579
▁foundation	-12580
▁principle	-12581
主要的	-12582
质疑	-12583
▁Ra	-12584
而已	-12585
最新的	-12586
enth	-12587
▁UFC	-12588
▁pump	-12589
价值的	-12590
rators	-12591
过多	-12592
▁drawing	-12593
arry	-12594
rative	-12595
▁crop	-12596
lete	-12597
▁Ice	-12598
▁Design	-12599
▁CD	-12600
▁金	-12601
▁spark	-12602
▁saved	-12603
▁plate	-12604
华夏	-12605
▁hole	-12606
▁profession	-12607
▁producer	-12608
▁struggling	-12609
向上	-12610
下一	-12611
逾期	-12612
▁headed	-12613
取决	-12614
away	-12615
动员	-12616
优质的	-12617
idespread	-12618
里斯	-12619
感应	-12620
▁doors	-12621
平等	-12622
不大	-12623
iel	-12624
▁Walker	-12625
──	-12626
任职	-12627
▁wheel	-12628
":	-12629
生命的	-12630
老化	-12631
立方米	-12632
▁synt	-12633
我也	-12634
啤酒	-12635
中国人民	-12636
▁magn	-12637
不忘初心	-12638
▁rely	-12639
▁legend	-12640
▁indicate	-12641
征集	-12642
活性炭	-12643
etts	-12644
▁backed	-12645
城乡建设	-12646
而出	-12647
ls	-12648
标志着	-12649
▁请	-12650
▁dinner	-12651
▁Tri	-12652
遗憾	-12653
▁roles	-12654
appy	-12655
▁philosophy	-12656
esy	-12657
▁cannabis	-12658
兰州	-12659
▁neighb	-12660
或者是	-12661
极大的	-12662
事物	-12663
agger	-12664
▁Community	-12665
Ad	-12666
▁edition	-12667
burgh	-12668
均衡	-12669
▁liked	-12670
长达	-12671
前三	-12672
湾区	-12673
anna	-12674
笔记	-12675
▁ships	-12676
减肥	-12677
▁recognized	-12678
▁Pop	-12679
</	-12680
▁neutral	-12681
做出了	-12682
酒店的	-12683
▁cha	-12684
▁Medical	-12685
▁nominee	-12686
海拔	-12687
▁containing	-12688
参照	-12689
▁Ont	-12690
▁API	-12691
文化遗产	-12692
足够的	-12693
降低了	-12694
▁Xbox	-12695
职业技术	-12696
▁Former	-12697
▁ESPN	-12698
生日	-12699
ulating	-12700
▁Pot	-12701
▁stab	-12702
▁farmers	-12703
煤矿	-12704
环氧	-12705
的艺术	-12706
自然科学	-12707
男孩	-12708
官员	-12709
sylv	-12710
▁river	-12711
▁Engine	-12712
中超	-12713
▁withdraw	-12714
氯化	-12715
▁entering	-12716
oured	-12717
VP	-12718
▁Mah	-12719
▁Beach	-12720
▁flaw	-12721
长春	-12722
有时候	-12723
▁beliefs	-12724
WS	-12725
的重要性	-12726
既有	-12727
▁hired	-12728
约束	-12729
价比	-12730
teen	-12731
▁tackle	-12732
拼搏	-12733
研究人员	-12734
▁Allen	-12735
编程	-12736
我们会	-12737
▁movements	-12738
▁Kansas	-12739
困扰	-12740
影响到	-12741
谷歌	-12742
取决于	-12743
▁deliber	-12744
十四条	-12745
▁Anton	-12746
!)	-12747
违法行为	-12748
外贸	-12749
施行	-12750
▁Tenn	-12751
▁finger	-12752
酰胺	-12753
私募	-12754
还原	-12755
▁destruction	-12756
▁Technology	-12757
中标	-12758
能够在	-12759
高新区	-12760
展示了	-12761
▁aver	-12762
▁Pit	-12763
经济效益	-12764
▁Samsung	-12765
inf	-12766
▁languages	-12767
凌晨	-12768
缓慢	-12769
静电	-12770
▁Ap	-12771
毕业于	-12772
剧院	-12773
正当	-12774
▁要	-12775
的部分	-12776
enny	-12777
谈判	-12778
aching	-12779
诗人	-12780
uma	-12781
▁hang	-12782
怀孕	-12783
南宁	-12784
从此	-12785
De	-12786
友好	-12787
▁interviews	-12788
光明	-12789
▁achieved	-12790
▁Museum	-12791
▁arrange	-12792
省政府	-12793
▁barely	-12794
美团	-12795
热线	-12796
▁Season	-12797
▁tox	-12798
感兴趣	-12799
▁episodes	-12800
变成了	-12801
rous	-12802
长远	-12803
上课	-12804
编号	-12805
均有	-12806
气的	-12807
通行	-12808
某个	-12809
家企业	-12810
olen	-12811
tw	-12812
可分为	-12813
为主要	-12814
社会各界	-12815
彰显	-12816
▁Family	-12817
沿海	-12818
派遣	-12819
▁proport	-12820
萝卜	-12821
▁walls	-12822
总值	-12823
道的	-12824
▁reduction	-12825
隔热	-12826
耐心	-12827
▁delivery	-12828
主人	-12829
▁incent	-12830
倾向	-12831
▁Cost	-12832
▁Cameron	-12833
▁discrimination	-12834
▁Ho	-12835
家用	-12836
▁Ren	-12837
水处理	-12838
cience	-12839
▁gift	-12840
▁Albert	-12841
本着	-12842
this	-12843
差别	-12844
吃饭	-12845
央视	-12846
员工的	-12847
平板	-12848
富含	-12849
害怕	-12850
热量	-12851
▁Cook	-12852
▁upset	-12853
湿地	-12854
不断提升	-12855
▁forever	-12856
味的	-12857
▁Connect	-12858
合适的	-12859
但不	-12860
▁bath	-12861
科院	-12862
负面	-12863
租金	-12864
rik	-12865
▁processing	-12866
制的	-12867
赚钱	-12868
的一项	-12869
▁Pennsylv	-12870
---	-12871
▁CBS	-12872
样品	-12873
▁Environment	-12874
▁structures	-12875
▁Earlier	-12876
小孩	-12877
▁convicted	-12878
在我	-12879
▁Christians	-12880
上传	-12881
经纪	-12882
的名	-12883
▁challenging	-12884
典范	-12885
科学与	-12886
援助	-12887
▁Ale	-12888
应在	-12889
甲醛	-12890
yard	-12891
▁Ba	-12892
党组织	-12893
典礼	-12894
▁ocean	-12895
▁corporations	-12896
▁producing	-12897
走访	-12898
▁Ball	-12899
▁convin	-12900
两天	-12901
必须要	-12902
▁proven	-12903
的可	-12904
压缩机	-12905
▁gonna	-12906
据悉	-12907
usive	-12908
万个	-12909
促使	-12910
现将	-12911
▁Jun	-12912
ione	-12913
▁Conservative	-12914
▁Having	-12915
▁Action	-12916
国土	-12917
▁unex	-12918
处处	-12919
高等学校	-12920
▁ren	-12921
信贷	-12922
仓库	-12923
测定	-12924
————	-12925
aning	-12926
现已	-12927
▁其中	-12928
灯光	-12929
升高	-12930
▁reviews	-12931
任意	-12932
▁Spring	-12933
教研	-12934
分工	-12935
elf	-12936
▁Town	-12937
riers	-12938
领先的	-12939
仍有	-12940
变速	-12941
哈尔滨	-12942
学习的	-12943
▁Anderson	-12944
▁hitting	-12945
退役	-12946
以其	-12947
所谓的	-12948
门槛	-12949
草原	-12950
▁Brew	-12951
梳理	-12952
page	-12953
添加剂	-12954
会计师	-12955
外出	-12956
国家和地区	-12957
昨日	-12958
rac	-12959
汉语	-12960
▁borrow	-12961
▁rose	-12962
投标人	-12963
abinet	-12964
社保	-12965
▁ham	-12966
iy	-12967
▁illness	-12968
值得一提的是	-12969
▁trigger	-12970
都需要	-12971
金刚	-12972
▁retired	-12973
▁Po	-12974
毫无	-12975
学士	-12976
计量	-12977
GO	-12978
意志	-12979
engers	-12980
排行	-12981
▁indicated	-12982
开创	-12983
▁Person	-12984
▁restrictions	-12985
▁Writ	-12986
永久	-12987
▁Brother	-12988
重建	-12989
有个	-12990
▁Ross	-12991
来源于	-12992
秋季	-12993
、《	-12994
▁rapidly	-12995
ouver	-12996
的一次	-12997
▁technique	-12998
▁contained	-12999
早日	-13000
集中在	-13001
我要	-13002
经营者	-13003
▁websites	-13004
硫酸	-13005
国防	-13006
achus	-13007
存款	-13008
管理系统	-13009
奖学金	-13010
复兴	-13011
膨胀	-13012
▁Galaxy	-13013
持股	-13014
sels	-13015
▁util	-13016
▁widespread	-13017
和国家	-13018
资深	-13019
发掘	-13020
随之	-13021
▁suggesting	-13022
夜间	-13023
▁Bon	-13024
牵头	-13025
▁branch	-13026
bi	-13027
uper	-13028
pa	-13029
神奇	-13030
激情	-13031
可根据	-13032
欢乐	-13033
强烈的	-13034
▁bra	-13035
▁Division	-13036
ikes	-13037
器材	-13038
严峻	-13039
内容的	-13040
了一种	-13041
击败	-13042
▁smooth	-13043
届时	-13044
发现了	-13045
▁asks	-13046
then	-13047
困境	-13048
▁Pennsylvania	-13049
▁Santa	-13050
的最	-13051
▁tickets	-13052
和企业	-13053
县级以上	-13054
▁Baltimore	-13055
▁Austin	-13056
▁settlement	-13057
AV	-13058
演奏	-13059
用了	-13060
管理制度	-13061
副院长	-13062
气息	-13063
来看看	-13064
游乐	-13065
▁recognition	-13066
▁Latin	-13067
▁这些	-13068
县城	-13069
Getty	-13070
仲裁	-13071
▁intellectual	-13072
▁Stone	-13073
仅有	-13074
溶解	-13075
▁begun	-13076
MW	-13077
▁Hospital	-13078
▁campaigns	-13079
▁notion	-13080
▁hide	-13081
▁exclusive	-13082
▁Roy	-13083
线城市	-13084
▁representative	-13085
ologists	-13086
▁description	-13087
rator	-13088
急性	-13089
▁ON	-13090
▁第五	-13091
▁bail	-13092
增大	-13093
▁listening	-13094
我认为	-13095
veland	-13096
▁perpet	-13097
怀疑	-13098
机动车	-13099
▁Control	-13100
worth	-13101
▁NSA	-13102
原件	-13103
指引	-13104
▁NC	-13105
没有任何	-13106
意识到	-13107
▁iOS	-13108
岁月	-13109
▁这是	-13110
主机	-13111
常用	-13112
各项工作	-13113
IE	-13114
▁electronic	-13115
乐趣	-13116
lessly	-13117
dem	-13118
▁flash	-13119
jo	-13120
▁reducing	-13121
▁ethnic	-13122
▁Copy	-13123
珠海	-13124
阀门	-13125
▁reaching	-13126
▁->	-13127
体质	-13128
▁equally	-13129
暴露	-13130
投产	-13131
”,“	-13132
▁welf	-13133
所在地	-13134
人对	-13135
GA	-13136
▁contribute	-13137
法的	-13138
没想到	-13139
▁Pent	-13140
已经在	-13141
▁Pass	-13142
nedy	-13143
udes	-13144
▁normally	-13145
rical	-13146
fit	-13147
::	-13148
是目前	-13149
▁progressive	-13150
▁collapse	-13151
的活动	-13152
▁friendly	-13153
鲁迅	-13154
的状态	-13155
终身	-13156
▁grass	-13157
一半	-13158
达标	-13159
精确	-13160
救助	-13161
▁unclear	-13162
转化为	-13163
境界	-13164
▁robot	-13165
▁Philipp	-13166
bec	-13167
同年	-13168
”:	-13169
▁external	-13170
入围	-13171
高层	-13172
型企业	-13173
igrant	-13174
温室	-13175
cription	-13176
可靠性	-13177
文化旅游	-13178
▁Was	-13179
▁loyal	-13180
unes	-13181
▁welfare	-13182
▁terrorists	-13183
十字	-13184
挑选	-13185
▁Form	-13186
若本站收录的	-13187
书写	-13188
ancouver	-13189
aa	-13190
▁sensitive	-13191
少的	-13192
抵抗	-13193
书籍	-13194
发展战略	-13195
列为	-13196
武器	-13197
在外	-13198
执照	-13199
▁上海	-13200
rient	-13201
审理	-13202
▁Later	-13203
南昌	-13204
行程	-13205
法兰	-13206
中心的	-13207
坚持以	-13208
▁Lewis	-13209
报送	-13210
▁frag	-13211
仍在	-13212
usted	-13213
复发	-13214
低碳	-13215
▁racist	-13216
arrass	-13217
gener	-13218
isp	-13219
▁deputy	-13220
数据的	-13221
▁anger	-13222
▁exceed	-13223
国资	-13224
▁scream	-13225
为代表	-13226
▁Bad	-13227
rer	-13228
一日	-13229
▁prepare	-13230
ecut	-13231
修正	-13232
igible	-13233
▁minds	-13234
▁NOT	-13235
▁carefully	-13236
achusetts	-13237
▁association	-13238
疫情影响	-13239
东风	-13240
财报	-13241
rolled	-13242
▁practical	-13243
▁overwhelming	-13244
▁featuring	-13245
▁hardly	-13246
主要包括	-13247
▁MORE	-13248
▁Exper	-13249
▁invent	-13250
▁initiative	-13251
是可以	-13252
等因素	-13253
有益	-13254
▁km	-13255
▁Arabia	-13256
物体	-13257
▁Ministry	-13258
aka	-13259
intendo	-13260
不确定	-13261
的理念	-13262
▁respectively	-13263
十六条	-13264
▁unemployment	-13265
")	-13266
为其	-13267
▁Update	-13268
好友	-13269
▁Golden	-13270
榜单	-13271
孔子	-13272
云南省	-13273
stract	-13274
▁Adv	-13275
不懈	-13276
▁AND	-13277
▁viewers	-13278
▁lists	-13279
防守	-13280
诠释	-13281
▁smoke	-13282
高兴	-13283
umes	-13284
▁involvement	-13285
▁tail	-13286
在上海	-13287
目前已	-13288
蓝色	-13289
▁Greece	-13290
▁Keep	-13291
服务于	-13292
应用程序	-13293
出演	-13294
▁Howard	-13295
由中国	-13296
▁Six	-13297
旗舰	-13298
太空	-13299
EST	-13300
也不能	-13301
▁Low	-13302
▁Queen	-13303
iversary	-13304
工作经验	-13305
▁fantasy	-13306
Se	-13307
极其	-13308
竣工	-13309
方可	-13310
▁Broad	-13311
的位置	-13312
两国	-13313
亲子	-13314
辛苦	-13315
▁framework	-13316
▁recover	-13317
福建省	-13318
国家标准	-13319
▁complaints	-13320
幸运	-13321
▁thrown	-13322
ifest	-13323
uties	-13324
第八	-13325
▁devast	-13326
▁Tro	-13327
有一定的	-13328
▁Sus	-13329
显示屏	-13330
yer	-13331
▁array	-13332
▁mo	-13333
伟大的	-13334
oding	-13335
美国的	-13336
海报	-13337
平台的	-13338
▁invited	-13339
▁fiscal	-13340
▁statistics	-13341
崛起	-13342
▁scores	-13343
▁convinced	-13344
▁vary	-13345
余名	-13346
副会长	-13347
▁vital	-13348
Im	-13349
全区	-13350
▁Harris	-13351
遭受	-13352
苏宁	-13353
组长	-13354
喜欢的	-13355
别人的	-13356
家庄	-13357
细分	-13358
航空公司	-13359
▁constitutional	-13360
▁cos	-13361
起步	-13362
如果您	-13363
owing	-13364
年限	-13365
本赛季	-13366
我和	-13367
▁screens	-13368
同样的	-13369
开发的	-13370
交互	-13371
板的	-13372
密码	-13373
原子	-13374
选择了	-13375
看似	-13376
▁joining	-13377
icket	-13378
▁deeper	-13379
爱好者	-13380
接入	-13381
inois	-13382
行政处罚	-13383
▁Jam	-13384
画家	-13385
▁Getty	-13386
▁lobby	-13387
▁independence	-13388
een	-13389
务实	-13390
▁Prov	-13391
▁investigate	-13392
拉斯	-13393
▁sugar	-13394
osit	-13395
现任	-13396
▁Liver	-13397
▁connections	-13398
礼物	-13399
力学	-13400
联络	-13401
减少了	-13402
发扬	-13403
电动汽车	-13404
有一些	-13405
电梯	-13406
与会	-13407
民政	-13408
MB	-13409
不当	-13410
▁behaviour	-13411
esh	-13412
性价比	-13413
▁strategic	-13414
▁gear	-13415
家属	-13416
沃尔	-13417
Every	-13418
▁remem	-13419
▁roads	-13420
样本	-13421
▁touchdown	-13422
▁noise	-13423
▁scandal	-13424
▁HD	-13425
▁wars	-13426
▁Kennedy	-13427
▁Dave	-13428
县委	-13429
▁anybody	-13430
使用者	-13431
工伤	-13432
勇于	-13433
▁经过	-13434
紧紧	-13435
▁总	-13436
破产	-13437
▁Gun	-13438
▁Expl	-13439
在接受	-13440
▁menu	-13441
▁scholars	-13442
在我国	-13443
春天	-13444
▁poly	-13445
的空间	-13446
from	-13447
▁improvements	-13448
▁尽管	-13449
积极参与	-13450
之为	-13451
行政主管部门	-13452
▁Chair	-13453
▁Ast	-13454
▁luck	-13455
▁Main	-13456
北美	-13457
遍布	-13458
原因是	-13459
老师的	-13460
▁jury	-13461
heast	-13462
▁controversy	-13463
不宜	-13464
mad	-13465
aret	-13466
触摸	-13467
▁Death	-13468
senal	-13469
imm	-13470
营运	-13471
▁Massachusetts	-13472
ele	-13473
的品牌	-13474
▁define	-13475
▁milk	-13476
江西省	-13477
▁fears	-13478
▁fiction	-13479
lad	-13480
行政机关	-13481
编写	-13482
水量	-13483
▁Vegas	-13484
的主题	-13485
▁Gaza	-13486
▁gathered	-13487
民航	-13488
▁可	-13489
卫视	-13490
眼前	-13491
育人	-13492
无效	-13493
的一年	-13494
▁failing	-13495
考证	-13496
用户提供	-13497
▁Saf	-13498
case	-13499
▁将	-13500
icking	-13501
型材	-13502
ji	-13503
对中国	-13504
▁fab	-13505
▁comprehens	-13506
▁citizen	-13507
▁Freedom	-13508
angel	-13509
▁ownership	-13510
相同的	-13511
Do	-13512
原告	-13513
▁democratic	-13514
▁Vancouver	-13515
RI	-13516
▁captain	-13517
也不是	-13518
▁discovery	-13519
的确	-13520
▁Line	-13521
▁serves	-13522
▁implemented	-13523
▁raw	-13524
打算	-13525
▁Columbia	-13526
▁incorpor	-13527
▁tip	-13528
pat	-13529
尼斯	-13530
改正	-13531
▁Code	-13532
uros	-13533
▁register	-13534
本网	-13535
▁reven	-13536
光学	-13537
▁inject	-13538
▁handful	-13539
With	-13540
▁licens	-13541
雄厚	-13542
借款	-13543
▁Bang	-13544
▁rural	-13545
▁versus	-13546
督导	-13547
十五条	-13548
把它	-13549
▁collective	-13550
▁Intelligence	-13551
▁temporary	-13552
▁overt	-13553
色列	-13554
慰问	-13555
▁soph	-13556
▁trained	-13557
▁civilians	-13558
交往	-13559
命令	-13560
▁transgender	-13561
报表	-13562
球场	-13563
▁referring	-13564
严肃	-13565
▁sin	-13566
处理器	-13567
pload	-13568
公安机关	-13569
ihad	-13570
▁alien	-13571
▁neighbour	-13572
ref	-13573
朋友们	-13574
▁Guardian	-13575
han	-13576
▁Tour	-13577
▁subjects	-13578
▁Lyn	-13579
常用的	-13580
▁accus	-13581
▁murd	-13582
像是	-13583
▁trem	-13584
▁prosec	-13585
在家	-13586
▁theat	-13587
属性	-13588
工业和	-13589
▁reprodu	-13590
▁regulation	-13591
综艺	-13592
签证	-13593
otype	-13594
礼品	-13595
▁visitors	-13596
bridge	-13597
牛奶	-13598
▁wages	-13599
isa	-13600
技术与	-13601
▁Cleveland	-13602
cific	-13603
▁remarks	-13604
航线	-13605
▁discussions	-13606
▁、	-13607
出一	-13608
神的	-13609
▁disagree	-13610
裁判	-13611
设备和	-13612
▁Stadium	-13613
▁Price	-13614
得了	-13615
办事处	-13616
▁tone	-13617
▁platforms	-13618
感和	-13619
hour	-13620
监事	-13621
SM	-13622
需求的	-13623
审美	-13624
▁stupid	-13625
dy	-13626
无机	-13627
▁wine	-13628
最后一	-13629
▁Las	-13630
金山	-13631
▁attempting	-13632
杰出	-13633
ila	-13634
phones	-13635
客服	-13636
▁legs	-13637
电解	-13638
▁casual	-13639
▁Iranian	-13640
不应	-13641
保安	-13642
▁layer	-13643
蓬勃	-13644
知识和	-13645
储能	-13646
进了	-13647
▁Corpor	-13648
商贸	-13649
宠物	-13650
最多的	-13651
▁expanded	-13652
▁dynamic	-13653
医保	-13654
见的	-13655
对抗	-13656
▁entertainment	-13657
▁suffer	-13658
hot	-13659
敬业	-13660
▁ultimate	-13661
成立以来	-13662
微量	-13663
军人	-13664
首届	-13665
▁ingred	-13666
▁peak	-13667
▁日	-13668
▁extend	-13669
▁publication	-13670
▁genetic	-13671
▁awareness	-13672
体重	-13673
▁ranked	-13674
▁Ott	-13675
mary	-13676
OK	-13677
▁Store	-13678
长大	-13679
▁samples	-13680
▁Ur	-13681
激动	-13682
▁Yeah	-13683
▁logic	-13684
子宫	-13685
时机	-13686
▁tweeted	-13687
▁attacking	-13688
型的	-13689
客户端	-13690
▁recommended	-13691
火锅	-13692
比特	-13693
▁spaces	-13694
谨慎	-13695
别墅	-13696
先行	-13697
依次	-13698
室外	-13699
杀菌	-13700
齿轮	-13701
设计和	-13702
▁heading	-13703
星座	-13704
教会	-13705
经济社会发展	-13706
个人的	-13707
友谊	-13708
行业发展	-13709
市的	-13710
法制	-13711
健康发展	-13712
等人	-13713
▁那么	-13714
规范化	-13715
权的	-13716
▁estimate	-13717
])	-13718
▁liquid	-13719
▁Revolution	-13720
线条	-13721
衔接	-13722
过渡	-13723
▁symptoms	-13724
▁Age	-13725
▁eastern	-13726
共产党	-13727
孵化	-13728
▁holiday	-13729
降幅	-13730
vard	-13731
▁factory	-13732
共识	-13733
▁stake	-13734
控制系统	-13735
改为	-13736
以来的	-13737
守护	-13738
器官	-13739
▁Marvel	-13740
including	-13741
栏目	-13742
加州	-13743
华人	-13744
当日	-13745
集聚	-13746
归属于	-13747
那时	-13748
渴望	-13749
并发	-13750
▁Hon	-13751
除外	-13752
其中的	-13753
▁races	-13754
固定资产	-13755
lah	-13756
放置	-13757
▁displ	-13758
▁Illinois	-13759
预案	-13760
▁Run	-13761
粉末	-13762
▁Norm	-13763
acon	-13764
▁Hold	-13765
个小时	-13766
▁investigators	-13767
号召	-13768
用作	-13769
撤销	-13770
▁suspected	-13771
▁ignore	-13772
酒精	-13773
▁affairs	-13774
▁neck	-13775
cover	-13776
▁purchased	-13777
itionally	-13778
▁outs	-13779
边的	-13780
演艺	-13781
▁hypot	-13782
▁Prince	-13783
▁tasks	-13784
实施方案	-13785
▁grounds	-13786
来自于	-13787
几种	-13788
▁horse	-13789
摆脱	-13790
ordon	-13791
的总	-13792
▁settings	-13793
海岸	-13794
振动	-13795
第九	-13796
▁testim	-13797
摘要	-13798
▁enormous	-13799
个人信息	-13800
▁referend	-13801
化妆品	-13802
▁attached	-13803
▁hook	-13804
常识	-13805
忽略	-13806
▁sorry	-13807
ictions	-13808
▁brill	-13809
▁Budd	-13810
审判	-13811
人生的	-13812
取得的	-13813
头部	-13814
ommod	-13815
进一步加强	-13816
走在	-13817
:(	-13818
这意味着	-13819
▁Mill	-13820
关注的	-13821
▁viewed	-13822
注意到	-13823
量子	-13824
▁activist	-13825
▁improvement	-13826
马拉	-13827
划分	-13828
reprene	-13829
回落	-13830
▁diversity	-13831
▁Creat	-13832
▁cro	-13833
陪伴	-13834
区分	-13835
部门的	-13836
▁medicine	-13837
博会	-13838
▁Kong	-13839
AF	-13840
▁monitor	-13841
▁legitimate	-13842
总会	-13843
▁Justin	-13844
rets	-13845
▁investigating	-13846
▁brothers	-13847
▁她	-13848
▁coaches	-13849
勇敢	-13850
组件	-13851
▁resource	-13852
演绎	-13853
多吃	-13854
板材	-13855
精致	-13856
▁Short	-13857
▁rook	-13858
知的	-13859
▁celeb	-13860
▁recall	-13861
▁€	-13862
▁Iraqi	-13863
填报	-13864
▁Master	-13865
饱和	-13866
这是一	-13867
▁如	-13868
rance	-13869
'.	-13870
工地	-13871
arms	-13872
Star	-13873
▁Below	-13874
德里	-13875
".[	-13876
小康	-13877
▁Buff	-13878
▁mos	-13879
▁Fall	-13880
沿线	-13881
主持人	-13882
▁dramatic	-13883
▁actors	-13884
农民工	-13885
什么样的	-13886
▁Award	-13887
arn	-13888
的双	-13889
提升了	-13890
风雨	-13891
将有	-13892
▁Prop	-13893
Google	-13894
▁foss	-13895
气质	-13896
装箱	-13897
PL	-13898
理性	-13899
▁opinions	-13900
Qu	-13901
房地产开发	-13902
▁NATO	-13903
aying	-13904
看了	-13905
水源	-13906
raph	-13907
▁involves	-13908
▁Sure	-13909
▁resign	-13910
▁seemingly	-13911
▁absence	-13912
▁amid	-13913
ppers	-13914
Not	-13915
▁embarrass	-13916
▁suspended	-13917
▁loans	-13918
按规定	-13919
▁fallen	-13920
mg	-13921
xit	-13922
▁企业	-13923
▁substantial	-13924
和高	-13925
万亩	-13926
▁conspiracy	-13927
中介	-13928
▁intervention	-13929
iry	-13930
▁salary	-13931
oval	-13932
开始了	-13933
▁covers	-13934
形容	-13935
Ste	-13936
des	-13937
abeth	-13938
报导	-13939
▁advocates	-13940
足以	-13941
▁rational	-13942
▁tomorrow	-13943
▁overs	-13944
片区	-13945
▁presum	-13946
一开始	-13947
▁offices	-13948
认为是	-13949
▁humanity	-13950
▁mining	-13951
生效	-13952
积极的	-13953
前提	-13954
我不	-13955
乐团	-13956
大街	-13957
回升	-13958
新车	-13959
▁inflation	-13960
▁papers	-13961
十七条	-13962
说到	-13963
异议	-13964
▁providers	-13965
▁stayed	-13966
bet	-13967
穿着	-13968
▁Marsh	-13969
优雅	-13970
▁boat	-13971
ammed	-13972
mat	-13973
▁一个	-13974
▁Football	-13975
▁Lt	-13976
itage	-13977
勇气	-13978
dri	-13979
随机	-13980
serv	-13981
放大	-13982
手中	-13983
增值税	-13984
▁SC	-13985
此类	-13986
ira	-13987
丽的	-13988
优美	-13989
▁reads	-13990
ipal	-13991
▁porn	-13992
轮胎	-13993
蒸发	-13994
符号	-13995
low	-13996
中国人	-13997
出于	-13998
医学院	-13999
▁fulf	-14000
▁Tes	-14001
.-	-14002
半场	-14003
▁disrupt	-14004
涂层	-14005
要把	-14006
▁bars	-14007
▁coc	-14008
▁Abb	-14009
每位	-14010
▁bureau	-14011
不利	-14012
这两个	-14013
▁shr	-14014
外科	-14015
不管是	-14016
yo	-14017
摩托	-14018
艰苦	-14019
▁gam	-14020
▁Credit	-14021
maker	-14022
▁Chel	-14023
▁Photos	-14024
斯拉	-14025
尔顿	-14026
GE	-14027
每人	-14028
▁Common	-14029
估值	-14030
一直是	-14031
%-	-14032
工信	-14033
数码	-14034
▁Event	-14035
aval	-14036
▁Girl	-14037
ijing	-14038
以内	-14039
四年	-14040
▁Capital	-14041
▁cogn	-14042
OV	-14043
heim	-14044
▁throwing	-14045
HT	-14046
▁preced	-14047
aus	-14048
▁Front	-14049
▁mad	-14050
▁jur	-14051
承接	-14052
PE	-14053
科技大学	-14054
wered	-14055
清除	-14056
▁addressed	-14057
▁Patri	-14058
▁Capt	-14059
▁handed	-14060
对照	-14061
感冒	-14062
公布了	-14063
人性	-14064
▁console	-14065
心理学	-14066
▁noting	-14067
聪明	-14068
▁Five	-14069
▁warrant	-14070
澳洲	-14071
▁careful	-14072
▁Netflix	-14073
清水	-14074
合作的	-14075
标的	-14076
▁Unlike	-14077
▁virtually	-14078
西兰	-14079
至关	-14080
天空	-14081
洽谈	-14082
增加值	-14083
▁missile	-14084
是通过	-14085
大悲	-14086
为我们	-14087
流传	-14088
外汇	-14089
iley	-14090
▁profits	-14091
三等奖	-14092
▁Nintendo	-14093
智能制造	-14094
▁gains	-14095
SE	-14096
▁Alexander	-14097
▁depends	-14098
在职	-14099
的爱	-14100
▁bacter	-14101
▁clothes	-14102
受访	-14103
▁wrest	-14104
不少于	-14105
不高	-14106
千年	-14107
▁guest	-14108
▁forest	-14109
claim	-14110
▁petition	-14111
▁Mach	-14112
▁Roberts	-14113
灭火	-14114
ixed	-14115
▁Lear	-14116
▁transportation	-14117
人社	-14118
的价值	-14119
▁Mexican	-14120
▁Cooper	-14121
一只	-14122
icity	-14123
间接	-14124
geon	-14125
冒险	-14126
账号	-14127
▁lowest	-14128
▁attitude	-14129
▁conversations	-14130
试剂	-14131
产物	-14132
被誉为	-14133
▁consistently	-14134
▁Equ	-14135
少女	-14136
更容易	-14137
和生活	-14138
在未来	-14139
▁Denver	-14140
▁steel	-14141
▁Dream	-14142
贵州省	-14143
▁authent	-14144
也让	-14145
▁Indiana	-14146
iences	-14147
社会保险	-14148
冬天	-14149
▁fruit	-14150
keep	-14151
大自然	-14152
权力	-14153
股东的	-14154
会同	-14155
uits	-14156
电子邮件	-14157
ivals	-14158
plete	-14159
▁colors	-14160
▁incidents	-14161
▁speaks	-14162
有许多	-14163
住院	-14164
▁Bron	-14165
▁六	-14166
▁Unt	-14167
▁surf	-14168
发展规划	-14169
▁Final	-14170
元的	-14171
位列	-14172
短短	-14173
▁dance	-14174
文本	-14175
已在	-14176
▁swing	-14177
▁mountain	-14178
斯卡	-14179
▁就	-14180
▁reader	-14181
流感	-14182
出国	-14183
当时的	-14184
▁closing	-14185
▁contributions	-14186
▁personality	-14187
并通过	-14188
亚太	-14189
科学的	-14190
Ne	-14191
▁Indust	-14192
上月	-14193
再到	-14194
▁bug	-14195
阻燃	-14196
是国家	-14197
政协	-14198
证监会	-14199
微笑	-14200
▁(“	-14201
劳动力	-14202
情的	-14203
▁mic	-14204
▁Liverpool	-14205
▁rhet	-14206
日常生活	-14207
呼吁	-14208
环境中	-14209
▁accommod	-14210
新高	-14211
口感	-14212
▁fantastic	-14213
地方政府	-14214
的责任	-14215
▁chapter	-14216
▁Sarah	-14217
▁astron	-14218
紫外线	-14219
教职工	-14220
稳健	-14221
▁GT	-14222
的速度	-14223
血糖	-14224
环球	-14225
▁Deb	-14226
陌生	-14227
十八条	-14228
▁Ten	-14229
程度的	-14230
zed	-14231
▁UC	-14232
者和	-14233
这条	-14234
amac	-14235
学生在	-14236
出血	-14237
凤凰	-14238
▁appreciate	-14239
▁maps	-14240
▁shoulder	-14241
个工作	-14242
摄入	-14243
▁Moon	-14244
▁ballot	-14245
▁musical	-14246
▁handling	-14247
研讨会	-14248
超过了	-14249
核准	-14250
易于	-14251
克拉	-14252
表现为	-14253
▁spoken	-14254
师傅	-14255
iano	-14256
har	-14257
▁protocol	-14258
▁如今	-14259
▁guarantee	-14260
▁tries	-14261
白天	-14262
呈现出	-14263
ropri	-14264
▁drew	-14265
MI	-14266
Co	-14267
▁Mun	-14268
▁photograp	-14269
前行	-14270
FO	-14271
▁horror	-14272
党组	-14273
外语	-14274
inch	-14275
▁innovation	-14276
▁hint	-14277
aga	-14278
的花	-14279
分支	-14280
特朗	-14281
rec	-14282
政府信息公开	-14283
▁Eag	-14284
▁encouraged	-14285
原油	-14286
plate	-14287
▁judges	-14288
的力量	-14289
候选	-14290
▁conce	-14291
较小	-14292
▁depression	-14293
总数	-14294
试管婴儿	-14295
▁temperatures	-14296
▁tea	-14297
▁Mrs	-14298
做得	-14299
▁ranks	-14300
必需	-14301
▁Portland	-14302
▁marks	-14303
华南	-14304
鲜明	-14305
▁promises	-14306
▁portray	-14307
民国	-14308
公顷	-14309
疯狂	-14310
▁Beck	-14311
全校	-14312
增添	-14313
走了	-14314
社会保障	-14315
▁voter	-14316
离心	-14317
网址	-14318
位的	-14319
argo	-14320
▁lucky	-14321
▁brown	-14322
▁Ruby	-14323
▁Bra	-14324
自愿	-14325
作战	-14326
诗歌	-14327
近几年	-14328
▁Associated	-14329
。"	-14330
合规	-14331
uction	-14332
▁Bi	-14333
土工	-14334
▁subsequent	-14335
图形	-14336
合约	-14337
有力的	-14338
谈到	-14339
生产基地	-14340
▁efficiency	-14341
▁spiritual	-14342
喷涂	-14343
野生	-14344
▁comedy	-14345
上游	-14346
民俗	-14347
宾馆	-14348
▁Non	-14349
阻止	-14350
▁threw	-14351
▁inner	-14352
▁spokesperson	-14353
▁covering	-14354
并为	-14355
▁shout	-14356
▁joke	-14357
片的	-14358
▁divided	-14359
▁checks	-14360
scale	-14361
化解	-14362
cut	-14363
▁distributed	-14364
集团的	-14365
▁insist	-14366
薄膜	-14367
一方	-14368
AND	-14369
起草	-14370
▁Tech	-14371
恐怖	-14372
学子	-14373
▁improving	-14374
▁_	-14375
ela	-14376
国际机场	-14377
正面	-14378
▁referendum	-14379
aping	-14380
▁Sweden	-14381
▁●	-14382
press	-14383
▁周	-14384
▁premium	-14385
▁Jonathan	-14386
举行的	-14387
无关	-14388
建筑业	-14389
衍生	-14390
饮水	-14391
▁homeless	-14392
隆重	-14393
▁Ted	-14394
▁revel	-14395
SH	-14396
处在	-14397
一件	-14398
▁Hind	-14399
▁lands	-14400
不容	-14401
机械设备	-14402
制定了	-14403
ported	-14404
起诉	-14405
增长率	-14406
过程中的	-14407
ounce	-14408
的各种	-14409
调度	-14410
队长	-14411
▁acknowledged	-14412
▁Vill	-14413
▁protecting	-14414
▁stone	-14415
效力	-14416
▁drama	-14417
gov	-14418
▁截至	-14419
鸡蛋	-14420
交所	-14421
减免	-14422
人们对	-14423
▁cust	-14424
所以在	-14425
rell	-14426
将军	-14427
▁Left	-14428
过后	-14429
▁virus	-14430
▁Edward	-14431
Well	-14432
▁passengers	-14433
▁Base	-14434
热带	-14435
顶尖	-14436
精益	-14437
▁rom	-14438
冷冻	-14439
集群	-14440
抗疫	-14441
▁Tele	-14442
下属	-14443
▁Ontario	-14444
▁Warren	-14445
type	-14446
▁Cro	-14447
除尘	-14448
▁会议	-14449
▁paralle	-14450
▁Ak	-14451
怎么样	-14452
十足	-14453
js	-14454
领军	-14455
▁soil	-14456
是为	-14457
▁dump	-14458
▁replacement	-14459
和中	-14460
▁经	-14461
之内	-14462
▁locked	-14463
参会	-14464
▁grav	-14465
春季	-14466
▁Rather	-14467
▁None	-14468
▁nomination	-14469
high	-14470
TML	-14471
人为本	-14472
直至	-14473
动脉	-14474
annels	-14475
▁mistakes	-14476
▁stolen	-14477
atar	-14478
互通	-14479
▁Ever	-14480
门诊	-14481
个国家	-14482
ieties	-14483
养护	-14484
书中	-14485
免疫力	-14486
▁lets	-14487
传染病	-14488
发展改革	-14489
▁lying	-14490
篇文章	-14491
▁LA	-14492
amacare	-14493
▁responses	-14494
送到	-14495
热的	-14496
▁legacy	-14497
These	-14498
ection	-14499
严格的	-14500
玻璃钢	-14501
▁scan	-14502
出场	-14503
▁Pict	-14504
组成员	-14505
副主席	-14506
硕士学位	-14507
在中	-14508
超声波	-14509
撰写	-14510
找到了	-14511
教育厅	-14512
▁Bloom	-14513
backs	-14514
批次	-14515
恶性	-14516
iece	-14517
见面	-14518
创新的	-14519
弥陀	-14520
实业	-14521
▁breaks	-14522
得益	-14523
▁permit	-14524
▁Bridge	-14525
碰撞	-14526
博士学位	-14527
▁buff	-14528
ogs	-14529
▁diverse	-14530
之上	-14531
固化	-14532
行为的	-14533
水性	-14534
▁Silver	-14535
洁净	-14536
▁Graham	-14537
▁yellow	-14538
合作社	-14539
助学贷款	-14540
▁instrument	-14541
RL	-14542
记住	-14543
▁ordinary	-14544
前面	-14545
king	-14546
▁literature	-14547
同类	-14548
与发展	-14549
人间	-14550
龙头企业	-14551
▁abandoned	-14552
工程施工	-14553
erted	-14554
另有	-14555
家园	-14556
oded	-14557
多么	-14558
fund	-14559
电阻	-14560
hesis	-14561
荣耀	-14562
▁Hur	-14563
▁Management	-14564
berry	-14565
毕业后	-14566
光电	-14567
▁Cow	-14568
▁Eff	-14569
贫困户	-14570
加剧	-14571
▁Beijing	-14572
▁Atlantic	-14573
奠定了	-14574
▁commonly	-14575
遭到	-14576
lahoma	-14577
▁demonstrated	-14578
巴士	-14579
▁Empire	-14580
assador	-14581
至上	-14582
主力	-14583
身体的	-14584
oz	-14585
▁Utah	-14586
▁exit	-14587
智慧城市	-14588
▁barrel	-14589
内分泌	-14590
itary	-14591
愿望	-14592
都知道	-14593
为主的	-14594
党员干部	-14595
▁DO	-14596
uted	-14597
线索	-14598
▁joy	-14599
plus	-14600
基建	-14601
大家的	-14602
made	-14603
流动性	-14604
▁silver	-14605
组织实施	-14606
▁Speaking	-14607
被告人	-14608
▁Li	-14609
含义	-14610
功能的	-14611
▁compe	-14612
▁ratio	-14613
DF	-14614
▁dad	-14615
▁skept	-14616
▁Article	-14617
▁rear	-14618
并以	-14619
EV	-14620
智力	-14621
>>	-14622
▁tape	-14623
▁funded	-14624
古城	-14625
相较	-14626
不敢	-14627
▁studied	-14628
▁headquarters	-14629
Me	-14630
▁transactions	-14631
▁festival	-14632
▁counts	-14633
▁Eliz	-14634
开采	-14635
▁按照	-14636
定点	-14637
▁deficit	-14638
▁blast	-14639
以色列	-14640
EX	-14641
▁ignored	-14642
▁Mess	-14643
副校长	-14644
▁Bureau	-14645
饮用水	-14646
▁falls	-14647
量为	-14648
▁一般	-14649
▁Uber	-14650
穿越	-14651
没有人	-14652
▁Liberal	-14653
皇家	-14654
代表大会	-14655
宁夏	-14656
▁Est	-14657
▁insisted	-14658
aware	-14659
怎么办	-14660
组委会	-14661
▁protein	-14662
inction	-14663
此后	-14664
作为一个	-14665
为你	-14666
重要作用	-14667
▁helpful	-14668
自律	-14669
eries	-14670
之时	-14671
高档	-14672
ctic	-14673
▁scope	-14674
▁sty	-14675
都将	-14676
▁naturally	-14677
廉政	-14678
ova	-14679
病变	-14680
对自己	-14681
▁Bud	-14682
▁gal	-14683
▁copies	-14684
人民医院	-14685
▁partnership	-14686
体温	-14687
▁moon	-14688
encing	-14689
在他	-14690
▁mathem	-14691
▁monitoring	-14692
向前	-14693
▁upgrade	-14694
▁midfield	-14695
▁rif	-14696
和新	-14697
市场份额	-14698
QL	-14699
头的	-14700
esty	-14701
▁Chelsea	-14702
▁twenty	-14703
▁acquired	-14704
数额	-14705
▁capabilities	-14706
usalem	-14707
日常生活中	-14708
▁——	-14709
▁Tai	-14710
多多	-14711
生产厂家	-14712
据了解	-14713
上看	-14714
olph	-14715
后面	-14716
▁criticized	-14717
▁usage	-14718
▁clock	-14719
展览会	-14720
▁assert	-14721
▁assessment	-14722
行业中	-14723
自然资源	-14724
▁march	-14725
▁bub	-14726
许多人	-14727
▁render	-14728
quest	-14729
▁receiver	-14730
▁conservatives	-14731
集装箱	-14732
conf	-14733
之美	-14734
▁Sean	-14735
▁representing	-14736
销售收入	-14737
特朗普	-14738
▁universities	-14739
]。	-14740
SUV	-14741
孕妇	-14742
▁mun	-14743
山的	-14744
了自己的	-14745
▁tracking	-14746
▁万	-14747
会议室	-14748
构造	-14749
mic	-14750
shire	-14751
学业	-14752
▁measured	-14753
的人们	-14754
▁arrive	-14755
▁replied	-14756
▁symp	-14757
ais	-14758
▁Leon	-14759
给他	-14760
试行	-14761
届全国	-14762
comes	-14763
游览	-14764
子里	-14765
Can	-14766
ington	-14767
dney	-14768
争夺	-14769
▁shopping	-14770
▁Early	-14771
▁auto	-14772
观测	-14773
ika	-14774
章程	-14775
▁guitar	-14776
▁proposals	-14777
邮编	-14778
enez	-14779
牺牲	-14780
台风	-14781
客车	-14782
怎样的	-14783
acket	-14784
▁rebu	-14785
四季	-14786
存在着	-14787
▁supplies	-14788
▁stages	-14789
▁racism	-14790
调动	-14791
志愿服务	-14792
ecutive	-14793
▁plain	-14794
▁unions	-14795
▁performing	-14796
▁hoped	-14797
意愿	-14798
二氧化碳	-14799
上演	-14800
手工	-14801
ois	-14802
ocument	-14803
在国际	-14804
door	-14805
检察院	-14806
▁trave	-14807
日讯	-14808
▁ramp	-14809
iamond	-14810
历史的	-14811
高清	-14812
和工作	-14813
指导下	-14814
ige	-14815
fol	-14816
推介	-14817
手法	-14818
pton	-14819
▁Les	-14820
▁tie	-14821
▁programme	-14822
▁distract	-14823
奇迹	-14824
文化和旅游	-14825
rite	-14826
DNA	-14827
户籍	-14828
▁Sab	-14829
▁waters	-14830
▁warn	-14831
得多	-14832
▁inequ	-14833
不适	-14834
▁equality	-14835
就医	-14836
▁abroad	-14837
bow	-14838
▁grid	-14839
和大	-14840
今天的	-14841
点评	-14842
将达到	-14843
▁Intel	-14844
走势	-14845
福州	-14846
AY	-14847
火车站	-14848
目光	-14849
▁Mult	-14850
▁Mit	-14851
▁Bal	-14852
▁appointed	-14853
▁Hamilton	-14854
与管理	-14855
制约	-14856
》)	-14857
▁domain	-14858
做事	-14859
▁Children	-14860
辽宁省	-14861
▁les	-14862
▁Dutch	-14863
一块	-14864
▁gig	-14865
移植	-14866
校企	-14867
CT	-14868
奶茶	-14869
旅行社	-14870
hop	-14871
▁conventional	-14872
客场	-14873
opher	-14874
严格按照	-14875
▁margin	-14876
荣誉称号	-14877
的时代	-14878
▁accomplish	-14879
停车场	-14880
授课	-14881
▁exch	-14882
完毕	-14883
铸造	-14884
▁beauty	-14885
站式	-14886
▁fro	-14887
▁transit	-14888
一道	-14889
arth	-14890
按时	-14891
落户	-14892
热烈	-14893
垄断	-14894
isk	-14895
排列	-14896
▁Belg	-14897
汇聚	-14898
▁Hong	-14899
本法	-14900
氨基	-14901
适量	-14902
▁rescue	-14903
电线	-14904
再生能源	-14905
▁concrete	-14906
▁dismissed	-14907
电子产品	-14908
▁Harvard	-14909
▁Oklahoma	-14910
行星	-14911
清华大学	-14912
▁neuro	-14913
▁Governor	-14914
亚马	-14915
污染防治	-14916
▁Olympic	-14917
是国内	-14918
车主	-14919
▁Maryland	-14920
▁ves	-14921
是一位	-14922
很多的	-14923
▁cance	-14924
▁li	-14925
▁artific	-14926
▁Bruce	-14927
▁McK	-14928
▁hyper	-14929
Trump	-14930
▁Carter	-14931
omes	-14932
纳税人	-14933
会使	-14934
工程项目	-14935
饮用	-14936
开发者	-14937
▁Figure	-14938
茅台	-14939
▁presidency	-14940
就读	-14941
▁Der	-14942
▁congressional	-14943
倡议	-14944
irts	-14945
▁landscape	-14946
▁populations	-14947
▁reliable	-14948
▁Cho	-14949
▁letting	-14950
彩票	-14951
了一些	-14952
rimin	-14953
igent	-14954
▁museum	-14955
▁urged	-14956
全面的	-14957
▁Andre	-14958
▁Som	-14959
▁visiting	-14960
▁Morgan	-14961
▁introduction	-14962
多媒体	-14963
扣除	-14964
▁Hu	-14965
▁ec	-14966
aeda	-14967
▁Az	-14968
▁classified	-14969
▁acid	-14970
▁ax	-14971
▁spokeswoman	-14972
▁drove	-14973
▁Priv	-14974
信息系统	-14975
联通	-14976
德育	-14977
▁dust	-14978
但由于	-14979
拨打	-14980
氨酸	-14981
核算	-14982
举办了	-14983
archy	-14984
上门	-14985
▁blocked	-14986
▁CL	-14987
▁mini	-14988
就已经	-14989
▁senator	-14990
▁salt	-14991
商业模式	-14992
▁jun	-14993
的孩子	-14994
剧中	-14995
质量和	-14996
国王	-14997
▁Jerusalem	-14998
▁Hope	-14999
座谈会	-15000
▁Everyone	-15001
▁appearances	-15002
▁Iron	-15003
旅游景区	-15004
珠宝	-15005
▁targeting	-15006
iate	-15007
剩余	-15008
▁absor	-15009
▁politically	-15010
inals	-15011
▁Lam	-15012
theless	-15013
▁centers	-15014
▁Anna	-15015
很高的	-15016
ompson	-15017
了一系列	-15018
工程机械	-15019
▁Gary	-15020
Int	-15021
ennis	-15022
经贸	-15023
统计局	-15024
▁predicted	-15025
隐藏	-15026
rooms	-15027
放射	-15028
民用	-15029
▁dates	-15030
不对	-15031
嫌疑人	-15032
的创新	-15033
已于	-15034
▁Sound	-15035
▁hockey	-15036
复产	-15037
斯科	-15038
有色	-15039
▁veterans	-15040
微信公众号	-15041
偶像	-15042
首席执行	-15043
iPhone	-15044
DI	-15045
▁entitled	-15046
enter	-15047
▁clar	-15048
break	-15049
▁assign	-15050
▁Instagram	-15051
ught	-15052
ultane	-15053
农业农村	-15054
恐惧	-15055
结构的	-15056
收缩	-15057
公共卫生	-15058
elson	-15059
▁dub	-15060
▁Opp	-15061
▁Friend	-15062
▁requested	-15063
般的	-15064
完美的	-15065
这句话	-15066
正常的	-15067
长三角	-15068
)”	-15069
▁wider	-15070
短视频	-15071
决议	-15072
▁soccer	-15073
aria	-15074
营商	-15075
占总	-15076
▁rocket	-15077
尤为	-15078
技术人员	-15079
trans	-15080
充满了	-15081
公共服务	-15082
外交	-15083
因子	-15084
更快	-15085
▁mac	-15086
的意见	-15087
斗争	-15088
▁bread	-15089
默默	-15090
其在	-15091
TER	-15092
不必	-15093
水资源	-15094
onder	-15095
造成了	-15096
故意	-15097
ouri	-15098
国家队	-15099
▁documentary	-15100
▁Reddit	-15101
iki	-15102
凸显	-15103
▁Represent	-15104
迄今	-15105
接种	-15106
佩戴	-15107
明确了	-15108
▁whenever	-15109
▁hung	-15110
知名度	-15111
▁。	-15112
itter	-15113
▁Much	-15114
伊朗	-15115
don	-15116
追踪	-15117
去做	-15118
电动车	-15119
isons	-15120
▁Bible	-15121
▁cig	-15122
▁membership	-15123
的重点	-15124
mers	-15125
上周	-15126
适当的	-15127
一对	-15128
老百姓	-15129
ito	-15130
inating	-15131
查处	-15132
保密	-15133
▁Cra	-15134
浪潮	-15135
▁Vice	-15136
▁Eth	-15137
▁popularity	-15138
各省	-15139
筹备	-15140
▁pursue	-15141
acco	-15142
mans	-15143
螺旋	-15144
▁prisoners	-15145
石家庄	-15146
▁breath	-15147
▁submit	-15148
▁patch	-15149
ussell	-15150
▁事实上	-15151
▁Quest	-15152
▁Trade	-15153
▁survival	-15154
等情况	-15155
一颗	-15156
理事会	-15157
高原	-15158
▁Boe	-15159
▁马	-15160
eters	-15161
▁人	-15162
累积	-15163
▁representatives	-15164
录用	-15165
深刻的	-15166
函数	-15167
▁retirement	-15168
▁firing	-15169
白癜风医院	-15170
发力	-15171
在我们	-15172
直属	-15173
十九条	-15174
ahu	-15175
▁Total	-15176
▁violation	-15177
▁mole	-15178
资本市场	-15179
造纸	-15180
▁tips	-15181
▁Berlin	-15182
through	-15183
ective	-15184
duction	-15185
也没	-15186
界的	-15187
筛选	-15188
ordinary	-15189
▁approached	-15190
抑郁	-15191
展出	-15192
但我	-15193
改变了	-15194
ederation	-15195
客户提供	-15196
固醇	-15197
▁swim	-15198
动能	-15199
辣椒	-15200
▁restaurants	-15201
他还	-15202
oenix	-15203
资格考试	-15204
黑暗	-15205
▁Obamacare	-15206
越大	-15207
▁subscrib	-15208
我国的	-15209
▁Online	-15210
Sc	-15211
([	-15212
为目标	-15213
细则	-15214
关键词	-15215
▁JavaScript	-15216
商用	-15217
机票	-15218
唯一的	-15219
疗效	-15220
张家	-15221
▁employed	-15222
▁fighter	-15223
▁quote	-15224
优良的	-15225
积极性	-15226
系列产品	-15227
▁forecast	-15228
长久	-15229
zing	-15230
▁phrase	-15231
一句	-15232
only	-15233
▁brilliant	-15234
中秋	-15235
▁sequence	-15236
▁Magic	-15237
▁discour	-15238
▁compare	-15239
ped	-15240
▁Scottish	-15241
最有	-15242
科技成果	-15243
募集	-15244
相处	-15245
▁tactics	-15246
olves	-15247
女生	-15248
吸烟	-15249
洗涤	-15250
政府的	-15251
和支持	-15252
关系的	-15253
带给	-15254
▁Custom	-15255
▁wedd	-15256
▁introduce	-15257
▁persons	-15258
fare	-15259
栽培	-15260
草案	-15261
于一体的	-15262
如果没有	-15263
展望	-15264
▁Digital	-15265
erts	-15266
命中	-15267
mind	-15268
▁monthly	-15269
可以根据	-15270
▁overseas	-15271
职业生涯	-15272
坚强	-15273
Why	-15274
矿业	-15275
▁Box	-15276
▁Jerem	-15277
认识到	-15278
▁burden	-15279
医务	-15280
安静	-15281
试用	-15282
********	-15283
▁banking	-15284
▁celebrate	-15285
可通过	-15286
科室	-15287
教堂	-15288
▁demanding	-15289
化学品	-15290
企业管理	-15291
一百	-15292
有一天	-15293
▁thorough	-15294
环境下	-15295
▁SU	-15296
▁entreprene	-15297
▁unexpected	-15298
▁focusing	-15299
出生于	-15300
▁forcing	-15301
orous	-15302
organ	-15303
来临	-15304
▁rush	-15305
硬化	-15306
▁contrad	-15307
aver	-15308
拉开	-15309
▁argues	-15310
党中央	-15311
▁hosp	-15312
炎症	-15313
▁Tennes	-15314
▁cul	-15315
▁investigations	-15316
不容易	-15317
People	-15318
如果是	-15319
▁Murray	-15320
▁pipeline	-15321
只需要	-15322
两家	-15323
工序	-15324
▁Know	-15325
▁designs	-15326
jud	-15327
详细的	-15328
助推	-15329
▁Ark	-15330
▁saving	-15331
olds	-15332
▁−	-15333
rapped	-15334
asty	-15335
理事长	-15336
▁黄	-15337
▁disorder	-15338
是否有	-15339
路口	-15340
立刻	-15341
▁scientist	-15342
▁generations	-15343
厕所	-15344
修建	-15345
阻碍	-15346
▁Crit	-15347
▁Leader	-15348
原有	-15349
▁testimony	-15350
▁producers	-15351
能力强	-15352
体现在	-15353
▁hydro	-15354
▁Kick	-15355
大致	-15356
▁experiments	-15357
可用于	-15358
自主研发	-15359
低的	-15360
五十	-15361
▁Palestinians	-15362
的成功	-15363
实践中	-15364
极具	-15365
▁butt	-15366
▁preparing	-15367
▁Sav	-15368
▁prepar	-15369
▁universal	-15370
人类的	-15371
提名	-15372
▁channels	-15373
平台上	-15374
应届	-15375
拉动	-15376
▁Aud	-15377
agh	-15378
买卖	-15379
酒店集团	-15380
▁mit	-15381
重症	-15382
▁AS	-15383
称之为	-15384
雕刻	-15385
▁unpre	-15386
▁flags	-15387
▁loose	-15388
▁Tok	-15389
喜剧	-15390
▁deny	-15391
追溯	-15392
选购	-15393
▁harassment	-15394
所需的	-15395
▁healthcare	-15396
进入了	-15397
▁settled	-15398
美洲	-15399
▁tab	-15400
春秋	-15401
农户	-15402
总面积	-15403
水准	-15404
也非常	-15405
▁Station	-15406
minute	-15407
理工大学	-15408
▁weigh	-15409
▁phenomenon	-15410
当初	-15411
段时间	-15412
你是	-15413
▁weekly	-15414
医疗卫生	-15415
icism	-15416
源头	-15417
▁Being	-15418
html	-15419
ctr	-15420
他对	-15421
尔斯	-15422
▁Son	-15423
会被	-15424
▁GO	-15425
操作系统	-15426
总理	-15427
的热情	-15428
▁anniversary	-15429
▁Batman	-15430
直流	-15431
▁Fal	-15432
▁Page	-15433
▁bab	-15434
▁stability	-15435
等部门	-15436
有关的	-15437
ds	-15438
▁Simon	-15439
▁pron	-15440
▁Therefore	-15441
▁Crime	-15442
公主	-15443
▁objective	-15444
初级	-15445
科技进步	-15446
▁Vietnam	-15447
▁actively	-15448
held	-15449
gage	-15450
▁titled	-15451
▁shadow	-15452
walk	-15453
ounding	-15454
万达	-15455
emed	-15456
▁maintained	-15457
▁arguing	-15458
Now	-15459
izer	-15460
▁Jean	-15461
▁arbit	-15462
▁Support	-15463
▁childhood	-15464
▁Fact	-15465
▁Access	-15466
▁differently	-15467
近年	-15468
▁wealthy	-15469
的需要	-15470
势头	-15471
▁broader	-15472
修养	-15473
▁rooms	-15474
▁releases	-15475
洗衣	-15476
party	-15477
▁spots	-15478
核实	-15479
首位	-15480
▁lunch	-15481
较少	-15482
▁encounter	-15483
可行	-15484
力求	-15485
▁legislative	-15486
▁Sydney	-15487
bury	-15488
▁innocent	-15489
有些人	-15490
▁主要	-15491
▁Should	-15492
民办	-15493
轿车	-15494
纪检	-15495
万亿	-15496
▁Moreover	-15497
▁satellite	-15498
假如	-15499
致辞	-15500
irlf	-15501
▁Thompson	-15502
▁ML	-15503
火星	-15504
单体	-15505
HD	-15506
oret	-15507
▁smartphone	-15508
▁anxiety	-15509
▁Elizabeth	-15510
alia	-15511
▁savings	-15512
的概念	-15513
河流	-15514
▁fool	-15515
的角度	-15516
▁Think	-15517
▁secondary	-15518
▁Would	-15519
▁Gulf	-15520
▁deadly	-15521
就没有	-15522
▁tens	-15523
不错的	-15524
光纤	-15525
▁Official	-15526
▁keys	-15527
▁reveals	-15528
▁servers	-15529
▁aer	-15530
irlfriend	-15531
即时	-15532
▁submitted	-15533
北斗	-15534
▁Others	-15535
两侧	-15536
▁surely	-15537
▁sorts	-15538
很强的	-15539
近视	-15540
出色的	-15541
感知	-15542
就算	-15543
▁Roll	-15544
▁fate	-15545
▁provision	-15546
做什么	-15547
▁abilities	-15548
树木	-15549
▁outrage	-15550
平米	-15551
▁reforms	-15552
ocolate	-15553
为导向	-15554
的决定	-15555
▁smoking	-15556
▁landing	-15557
▁quoted	-15558
年被	-15559
▁alarm	-15560
they	-15561
三四	-15562
将被	-15563
▁Tax	-15564
LO	-15565
▁tonight	-15566
确立	-15567
首席执行官	-15568
▁▁	-15569
一直以来	-15570
压器	-15571
上报	-15572
工程学院	-15573
灵感	-15574
▁bonus	-15575
rection	-15576
BN	-15577
意向	-15578
▁shame	-15579
养老保险	-15580
下车	-15581
Ind	-15582
▁Clark	-15583
▁okay	-15584
论证	-15585
放缓	-15586
▁windows	-15587
▁questioned	-15588
▁silence	-15589
一大	-15590
端的	-15591
▁torture	-15592
十几	-15593
节能环保	-15594
▁exha	-15595
▁Things	-15596
各单位	-15597
▁circle	-15598
▁Dur	-15599
国有企业	-15600
▁prosecutors	-15601
▁Had	-15602
ethe	-15603
写字	-15604
亚马逊	-15605
">	-15606
指导意见	-15607
磨损	-15608
用工	-15609
▁sear	-15610
orious	-15611
总决赛	-15612
安全隐患	-15613
宝马	-15614
的出现	-15615
▁threatening	-15616
数据中心	-15617
门户	-15618
▁errors	-15619
▁awarded	-15620
的传统	-15621
▁graduate	-15622
较强	-15623
BD	-15624
”?	-15625
防汛	-15626
▁rounds	-15627
▁Jenn	-15628
brid	-15629
aki	-15630
▁ratings	-15631
这种情况	-15632
▁affordable	-15633
▁civilian	-15634
▁odds	-15635
学前	-15636
▁relax	-15637
tenance	-15638
全自动	-15639
AK	-15640
米兰	-15641
高水平	-15642
多位	-15643
央行	-15644
▁reverse	-15645
塞尔	-15646
不仅仅是	-15647
▁Festival	-15648
反射	-15649
▁gent	-15650
▁那	-15651
工委	-15652
▁trillion	-15653
▁hal	-15654
欧冠	-15655
▁Could	-15656
预报	-15657
前所	-15658
华东	-15659
ses	-15660
或者其他	-15661
贯穿	-15662
yes	-15663
这里的	-15664
蔓延	-15665
公开发	-15666
TF	-15667
忠诚	-15668
供热	-15669
cn	-15670
姐姐	-15671
▁consent	-15672
想起	-15673
▁roof	-15674
▁Wind	-15675
还没	-15676
▁Hart	-15677
sl	-15678
牢固	-15679
itol	-15680
恶劣	-15681
花卉	-15682
▁sevent	-15683
▁waves	-15684
▁fur	-15685
▁Assembly	-15686
通过对	-15687
▁Gil	-15688
▁Oakland	-15689
gus	-15690
现有的	-15691
▁persu	-15692
的患者	-15693
数百	-15694
年全国	-15695
天津市	-15696
▁comprehensive	-15697
agic	-15698
▁adventure	-15699
▁delic	-15700
▁struggled	-15701
Net	-15702
▁importantly	-15703
hatt	-15704
▁smell	-15705
三次	-15706
etch	-15707
▁borders	-15708
年第	-15709
留言	-15710
面临的	-15711
▁Gre	-15712
等到	-15713
盲目	-15714
▁assass	-15715
小微企业	-15716
基准	-15717
鉴于	-15718
之心	-15719
UST	-15720
典型的	-15721
OH	-15722
▁puzz	-15723
▁birds	-15724
准入	-15725
脚步	-15726
注意事项	-15727
▁ceremony	-15728
race	-15729
bered	-15730
▁Hand	-15731
▁Wi	-15732
aders	-15733
店铺	-15734
游戏的	-15735
child	-15736
舒服	-15737
GM	-15738
▁propaganda	-15739
▁chest	-15740
▁intim	-15741
Facebook	-15742
lined	-15743
报酬	-15744
▁picks	-15745
出院	-15746
atern	-15747
ierce	-15748
▁stored	-15749
的电影	-15750
▁Yemen	-15751
各方面	-15752
▁fing	-15753
▁deserve	-15754
面貌	-15755
portation	-15756
月经	-15757
iffe	-15758
结构性	-15759
拿下	-15760
竞争对手	-15761
功德	-15762
▁ages	-15763
几个月	-15764
fr	-15765
▁possess	-15766
让孩子	-15767
▁striking	-15768
▁consideration	-15769
▁voices	-15770
大地	-15771
职业技能	-15772
iev	-15773
塑胶	-15774
扩建	-15775
▁Bow	-15776
▁newsletter	-15777
▁Staff	-15778
▁pointing	-15779
一台	-15780
阿弥陀	-15781
▁streaming	-15782
▁rookie	-15783
。[	-15784
▁instructions	-15785
有一种	-15786
achel	-15787
因其	-15788
北京时间	-15789
holders	-15790
▁cream	-15791
▁Remember	-15792
也需要	-15793
▁Charlie	-15794
丧失	-15795
产品和	-15796
法学	-15797
▁Vik	-15798
akh	-15799
▁Gordon	-15800
▁autonom	-15801
衡量	-15802
可以用	-15803
▁Nev	-15804
CM	-15805
液晶	-15806
中西	-15807
▁precisely	-15808
▁kilomet	-15809
主办的	-15810
示范区	-15811
打包	-15812
墨西	-15813
路面	-15814
描绘	-15815
降温	-15816
▁burning	-15817
致富	-15818
▁semi	-15819
▁USB	-15820
▁demonstrate	-15821
▁cooperation	-15822
是全球	-15823
红外	-15824
omy	-15825
▁Holl	-15826
base	-15827
彩色	-15828
▁dying	-15829
之家	-15830
头发	-15831
会影响	-15832
▁consensus	-15833
各样的	-15834
你在	-15835
▁Brexit	-15836
▁highlights	-15837
▁Sud	-15838
▁promising	-15839
▁architecture	-15840
外商	-15841
洛阳	-15842
京津	-15843
▁categories	-15844
研究的	-15845
▁staying	-15846
营业执照	-15847
aya	-15848
▁calm	-15849
的消息	-15850
▁Type	-15851
排污	-15852
的前提下	-15853
▁Local	-15854
▁Marx	-15855
乡村振兴	-15856
合一	-15857
自贸	-15858
bits	-15859
的增长	-15860
▁Download	-15861
▁distingu	-15862
哪儿	-15863
英格兰	-15864
asant	-15865
▁Heart	-15866
时空	-15867
就诊	-15868
中原	-15869
▁simultane	-15870
▁analyst	-15871
定向	-15872
▁procedure	-15873
umble	-15874
▁stepped	-15875
▁Player	-15876
量化	-15877
▁playoffs	-15878
aration	-15879
▁physically	-15880
出门	-15881
淘宝	-15882
hard	-15883
万物	-15884
中国经济	-15885
uten	-15886
侵害	-15887
▁Comey	-15888
orship	-15889
促进了	-15890
asury	-15891
▁drives	-15892
担忧	-15893
第一季度	-15894
爱你	-15895
的长	-15896
▁Libya	-15897
▁ans	-15898
▁stem	-15899
是如何	-15900
▁Psych	-15901
压机	-15902
屋顶	-15903
▁defeated	-15904
希望能	-15905
都被	-15906
▁tremend	-15907
▁quit	-15908
法官	-15909
ceptions	-15910
还不	-15911
van	-15912
强国	-15913
▁greatly	-15914
▁whereas	-15915
自学	-15916
stal	-15917
▁dispute	-15918
逐年	-15919
cedented	-15920
粉尘	-15921
▁execution	-15922
军队	-15923
step	-15924
die	-15925
▁Table	-15926
rix	-15927
区间	-15928
aud	-15929
▁crimin	-15930
原来的	-15931
▁implications	-15932
善良	-15933
新中国	-15934
was	-15935
▁emerging	-15936
osa	-15937
▁assigned	-15938
▁executives	-15939
ishop	-15940
▁assumed	-15941
▁©	-15942
的车	-15943
▁repeat	-15944
跟随	-15945
的比赛	-15946
▁difficulty	-15947
繁殖	-15948
▁Pentagon	-15949
▁Rest	-15950
▁Captain	-15951
pen	-15952
▁dialogue	-15953
墨西哥	-15954
▁Hawai	-15955
他表示	-15956
▁wanting	-15957
▁Tennessee	-15958
sect	-15959
家协会	-15960
▁gif	-15961
▁hosted	-15962
olar	-15963
▁bias	-15964
有毒	-15965
▁strategies	-15966
新华社	-15967
apolis	-15968
omed	-15969
Station	-15970
十余	-15971
▁meaningful	-15972
▁chicken	-15973
显现	-15974
为广大	-15975
排行榜	-15976
igious	-15977
▁coinc	-15978
▁contacted	-15979
山西省	-15980
执导	-15981
div	-15982
悬浮	-15983
ailed	-15984
监督检查	-15985
▁opens	-15986
启发	-15987
annon	-15988
▁Executive	-15989
▁Case	-15990
白云	-15991
独家	-15992
▁participation	-15993
▁judgment	-15994
▁competing	-15995
出游	-15996
▁Alan	-15997
▁formation	-15998
埃及	-15999
研究和	-16000
无奈	-16001
▁accessible	-16002
的研发	-16003
性地	-16004
▁contribution	-16005
▁promoting	-16006
▁remarkable	-16007
igate	-16008
迎来了	-16009
面临着	-16010
▁ministry	-16011
▁Wales	-16012
甚至是	-16013
简化	-16014
cest	-16015
短信	-16016
抗体	-16017
路段	-16018
流失	-16019
解决问题	-16020
空白	-16021
全文	-16022
rif	-16023
演唱会	-16024
▁Log	-16025
走到	-16026
lee	-16027
after	-16028
亲切	-16029
资产管理	-16030
安防	-16031
▁alter	-16032
二人	-16033
配电	-16034
▁cow	-16035
表现出	-16036
朝阳	-16037
的有效	-16038
▁Affairs	-16039
合作关系	-16040
思想政治	-16041
将进一步	-16042
▁smile	-16043
▁Russell	-16044
一样的	-16045
服饰	-16046
的业务	-16047
▁frequency	-16048
中期	-16049
加快推进	-16050
alysis	-16051
▁donations	-16052
也是一	-16053
机体	-16054
错过	-16055
商业银行	-16056
▁endorse	-16057
▁Economic	-16058
二维	-16059
的政策	-16060
pled	-16061
ributes	-16062
▁wounded	-16063
oln	-16064
▁shield	-16065
严禁	-16066
在该	-16067
week	-16068
▁MLS	-16069
市场化	-16070
iffs	-16071
内存	-16072
更重要的是	-16073
▁investments	-16074
▁revers	-16075
排出	-16076
付费	-16077
▁mm	-16078
vertisements	-16079
▁managing	-16080
▁Gro	-16081
度过	-16082
意的	-16083
▁fossil	-16084
马克思	-16085
硕士研究生	-16086
甲方	-16087
▁nin	-16088
特别是在	-16089
itual	-16090
eria	-16091
风貌	-16092
等一系列	-16093
成都市	-16094
拍照	-16095
▁Fant	-16096
医护人员	-16097
▁legally	-16098
住房公积金	-16099
等各种	-16100
头痛	-16101
▁gross	-16102
▁transaction	-16103
冷凝	-16104
▁drone	-16105
▁suspects	-16106
防御	-16107
pd	-16108
讲究	-16109
▁clothing	-16110
这样一个	-16111
acher	-16112
▁Trust	-16113
▁hip	-16114
scribe	-16115
时间和	-16116
▁enthusi	-16117
上年同期	-16118
以及其他	-16119
hr	-16120
▁centuries	-16121
聊天	-16122
中午	-16123
▁knee	-16124
畅通	-16125
官方网站	-16126
远的	-16127
▁athletes	-16128
入驻	-16129
系统中	-16130
微量元素	-16131
石头	-16132
▁dating	-16133
▁recipe	-16134
在了	-16135
车道	-16136
▁Third	-16137
▁mood	-16138
▁inspect	-16139
▁inches	-16140
设计与	-16141
▁openly	-16142
值得注意的是	-16143
暂行	-16144
▁ease	-16145
博士后	-16146
▁Editor	-16147
MM	-16148
▁lux	-16149
在今年	-16150
就是要	-16151
二期	-16152
孤独	-16153
▁superior	-16154
▁TR	-16155
统治	-16156
社会科学	-16157
▁divor	-16158
同等	-16159
总支	-16160
通知书	-16161
商务部	-16162
▁bin	-16163
▁custody	-16164
▁nic	-16165
企事业单位	-16166
▁Disc	-16167
真实性	-16168
▁indicates	-16169
可爱	-16170
▁Andy	-16171
的音乐	-16172
▁enhance	-16173
▁memo	-16174
Windows	-16175
▁PA	-16176
▁guidelines	-16177
相对于	-16178
知识的	-16179
可惜	-16180
性别	-16181
▁Dragon	-16182
暴力	-16183
生于	-16184
math	-16185
▁原	-16186
▁riding	-16187
的建筑	-16188
卫生健康	-16189
身高	-16190
预告	-16191
抵押	-16192
水上	-16193
issue	-16194
反弹	-16195
失去了	-16196
▁trials	-16197
▁grade	-16198
自来	-16199
▁Until	-16200
▁passage	-16201
▁eligible	-16202
▁pharm	-16203
▁blank	-16204
色素	-16205
▁Phill	-16206
出租车	-16207
看好	-16208
Cont	-16209
▁lapt	-16210
的健康	-16211
▁facilit	-16212
▁CON	-16213
土耳	-16214
这一切	-16215
iac	-16216
herent	-16217
下一个	-16218
▁CPU	-16219
平常	-16220
▁expanding	-16221
author	-16222
erg	-16223
平静	-16224
运动会	-16225
▁damaged	-16226
▁Michel	-16227
▁tired	-16228
报到	-16229
百强	-16230
Mar	-16231
模仿	-16232
▁Cole	-16233
▁Bol	-16234
领导班子	-16235
▁studying	-16236
只会	-16237
洛杉	-16238
vision	-16239
▁addresses	-16240
▁tap	-16241
market	-16242
更能	-16243
▁spectrum	-16244
立项	-16245
▁GDP	-16246
的声音	-16247
曲线	-16248
ogy	-16249
冰雪	-16250
常委	-16251
▁battles	-16252
手表	-16253
阐述	-16254
roph	-16255
绝大多数	-16256
fers	-16257
降解	-16258
▁Ca	-16259
▁substance	-16260
▁Ku	-16261
▁bowl	-16262
难得	-16263
进去	-16264
金钱	-16265
▁educational	-16266
▁charity	-16267
▁manifest	-16268
毫不	-16269
日后	-16270
议题	-16271
消费品	-16272
督查	-16273
▁Consider	-16274
▁memories	-16275
izza	-16276
▁tables	-16277
▁defending	-16278
天天	-16279
较快	-16280
▁organic	-16281
▁aged	-16282
的用户	-16283
就开始	-16284
▁Hal	-16285
全长	-16286
▁Bul	-16287
III	-16288
aved	-16289
news	-16290
elle	-16291
lando	-16292
▁Additionally	-16293
徒刑	-16294
神话	-16295
▁perceived	-16296
金融服务	-16297
▁na	-16298
▁Khan	-16299
▁Kentucky	-16300
指令	-16301
▁discount	-16302
评级	-16303
导热	-16304
▁muscle	-16305
▁Ox	-16306
▁backing	-16307
▁racing	-16308
大胆	-16309
影响力的	-16310
天堂	-16311
left	-16312
调味	-16313
年产	-16314
▁presentation	-16315
assy	-16316
玫瑰	-16317
风情	-16318
洛杉矶	-16319
vi	-16320
三个月	-16321
▁therapy	-16322
▁Trib	-16323
▁info	-16324
但这	-16325
orable	-16326
万元的	-16327
勘察	-16328
▁clinical	-16329
▁Occ	-16330
大湾区	-16331
orge	-16332
▁discussing	-16333
▁poison	-16334
电能	-16335
脱离	-16336
▁diseases	-16337
▁Pitts	-16338
的日子	-16339
igenous	-16340
watch	-16341
瀑布	-16342
▁managers	-16343
有机物	-16344
▁picking	-16345
瑞典	-16346
它们的	-16347
做大	-16348
▁dish	-16349
▁Harper	-16350
▁missions	-16351
▁shipping	-16352
▁CR	-16353
但是在	-16354
之道	-16355
有一定	-16356
▁theories	-16357
致使	-16358
emic	-16359
NBC	-16360
开花	-16361
▁foods	-16362
生活垃圾	-16363
;“	-16364
odox	-16365
酸盐	-16366
愿景	-16367
▁stere	-16368
你要	-16369
▁Pers	-16370
和社会保障	-16371
▁hopefully	-16372
越高	-16373
发泡	-16374
一定程度上	-16375
土耳其	-16376
▁Ref	-16377
▁Furthermore	-16378
▁industries	-16379
▁shell	-16380
▁kitchen	-16381
▁dominant	-16382
整车	-16383
▁Assad	-16384
形式的	-16385
降至	-16386
▁Word	-16387
技艺	-16388
英寸	-16389
▁glad	-16390
▁Tesla	-16391
加深	-16392
布斯	-16393
靠近	-16394
不存在	-16395
拆除	-16396
集合	-16397
▁gathering	-16398
付款	-16399
▁gate	-16400
大悲咒	-16401
oli	-16402
ateral	-16403
▁pocket	-16404
▁seed	-16405
▁Wolf	-16406
钢筋	-16407
叶片	-16408
angle	-16409
我们也	-16410
▁Future	-16411
特斯拉	-16412
暖气	-16413
▁coaching	-16414
脱水	-16415
▁Phoenix	-16416
的方向	-16417
▁impression	-16418
精湛	-16419
▁vig	-16420
▁Burn	-16421
地块	-16422
患病	-16423
▁scrut	-16424
▁recruit	-16425
天使	-16426
▁regulatory	-16427
旋律	-16428
弥补	-16429
真实的	-16430
even	-16431
是大	-16432
上世纪	-16433
导致的	-16434
▁bottle	-16435
enezuel	-16436
十二五	-16437
▁followers	-16438
乙方	-16439
▁tons	-16440
中毒	-16441
▁module	-16442
患上	-16443
▁counterpart	-16444
通车	-16445
riors	-16446
华侨	-16447
保证金	-16448
就被	-16449
月中旬	-16450
▁nerv	-16451
口味	-16452
▁Order	-16453
▁institution	-16454
iture	-16455
▁Model	-16456
gered	-16457
场馆	-16458
▁fundra	-16459
后再	-16460
暑期	-16461
▁stops	-16462
player	-16463
电厂	-16464
绿色建筑	-16465
细腻	-16466
国企	-16467
itudes	-16468
▁arrival	-16469
▁underlying	-16470
Or	-16471
▁surviv	-16472
快速增长	-16473
大厅	-16474
限度	-16475
单车	-16476
网点	-16477
▁unfair	-16478
那就	-16479
▁obsc	-16480
▁Delhi	-16481
missions	-16482
了解一下	-16483
有利	-16484
agen	-16485
是用	-16486
配方	-16487
外形	-16488
▁graphics	-16489
组织开展	-16490
聚丙烯酰胺	-16491
润滑油	-16492
▁explaining	-16493
住了	-16494
▁capitalism	-16495
铸铁	-16496
。)	-16497
耐用	-16498
......”	-16499
国庆	-16500
普查	-16501
政府采购	-16502
▁rhetoric	-16503
▁roy	-16504
几率	-16505
▁procedures	-16506
▁Yan	-16507
可以看到	-16508
展现了	-16509
舆论	-16510
影响的	-16511
新一轮	-16512
ALL	-16513
▁Metro	-16514
所长	-16515
oca	-16516
ylum	-16517
住在	-16518
市场监管	-16519
涌现	-16520
她说	-16521
移动互联网	-16522
▁fled	-16523
技术服务	-16524
▁eager	-16525
▁Aaron	-16526
命名	-16527
股市	-16528
建立健全	-16529
催化剂	-16530
的不断	-16531
拓宽	-16532
▁helic	-16533
的最佳	-16534
▁sed	-16535
Ob	-16536
继续教育	-16537
▁crus	-16538
HA	-16539
成熟的	-16540
owski	-16541
▁recre	-16542
自动驾驶	-16543
睡觉	-16544
▁Dod	-16545
太原	-16546
▁hospitals	-16547
结晶	-16548
另一种	-16549
已经有	-16550
医治	-16551
学问	-16552
一层	-16553
▁signature	-16554
产学	-16555
南海	-16556
沿着	-16557
▁Find	-16558
的一致	-16559
▁stance	-16560
▁Ven	-16561
▁timing	-16562
搬迁	-16563
处理的	-16564
一号	-16565
副局长	-16566
icipal	-16567
▁hire	-16568
▁tut	-16569
地理位置	-16570
电子竞技	-16571
▁beach	-16572
敢于	-16573
kee	-16574
▁Arsenal	-16575
极限	-16576
讲述了	-16577
ptions	-16578
第二个	-16579
▁Dick	-16580
vo	-16581
主营业务	-16582
abet	-16583
凭证	-16584
▁beings	-16585
▁echo	-16586
持久	-16587
气管	-16588
▁bow	-16589
展区	-16590
高性能	-16591
▁topics	-16592
区政府	-16593
同时也是	-16594
▁("	-16595
干预	-16596
时段	-16597
▁sovere	-16598
▁Kit	-16599
互补	-16600
年均	-16601
▁setup	-16602
对该	-16603
奶奶	-16604
▁variable	-16605
▁answered	-16606
村庄	-16607
▁math	-16608
社团	-16609
▁loop	-16610
注意力	-16611
丝绸	-16612
▁Channel	-16613
更具	-16614
面板	-16615
▁sixth	-16616
而非	-16617
现行	-16618
▁pulling	-16619
▁trends	-16620
空气质量	-16621
肥胖	-16622
获得的	-16623
优惠政策	-16624
▁Antonio	-16625
灾难	-16626
▁arr	-16627
▁cler	-16628
的新型	-16629
另行	-16630
淀粉	-16631
▁Ban	-16632
副教授	-16633
▁blockchain	-16634
可以说是	-16635
▁rebels	-16636
▁compat	-16637
疑似	-16638
变为	-16639
gence	-16640
视力	-16641
法定代表	-16642
兴起	-16643
▁adviser	-16644
大使	-16645
冰箱	-16646
▁pollution	-16647
▁genes	-16648
GS	-16649
出让	-16650
的生命	-16651
物业管理	-16652
年纪	-16653
好奇	-16654
▁engineers	-16655
▁acknowledge	-16656
▁searching	-16657
这首	-16658
▁Product	-16659
主题教育	-16660
辅导员	-16661
名义	-16662
市场规模	-16663
猪肉	-16664
tainment	-16665
▁Ocean	-16666
arre	-16667
▁dies	-16668
全过程	-16669
促销	-16670
让大家	-16671
▁punishment	-16672
netic	-16673
激活	-16674
CL	-16675
cosystem	-16676
▁requirement	-16677
会产生	-16678
▁everyday	-16679
▁sentenced	-16680
alties	-16681
短暂	-16682
牢记使命	-16683
填料	-16684
▁Continue	-16685
的重	-16686
几点	-16687
▁Copyright	-16688
的综合	-16689
万台	-16690
也都	-16691
:"	-16692
出水	-16693
atively	-16694
arency	-16695
为自己	-16696
简历	-16697
众所	-16698
▁beating	-16699
用量	-16700
▁insult	-16701
▁overl	-16702
增进	-16703
而又	-16704
▁outlets	-16705
%~	-16706
Reuters	-16707
▁speaker	-16708
当作	-16709
低压	-16710
热泵	-16711
恋爱	-16712
菲律	-16713
▁grap	-16714
了许多	-16715
残疾人	-16716
▁Reagan	-16717
但却	-16718
作品的	-16719
后勤	-16720
发明专利	-16721
颁布	-16722
多功能	-16723
漏洞	-16724
▁preferred	-16725
istant	-16726
▁merch	-16727
旗下的	-16728
▁billions	-16729
▁creatures	-16730
缩小	-16731
泰达	-16732
菲律宾	-16733
▁tweets	-16734
▁EPA	-16735
▁overcome	-16736
聚乙烯	-16737
▁helicop	-16738
ental	-16739
▁Brooklyn	-16740
▁Nothing	-16741
▁pill	-16742
可再生能源	-16743
▁lad	-16744
心血管	-16745
牛皮癣的	-16746
▁Soft	-16747
▁periods	-16748
▁spell	-16749
对阵	-16750
的意思	-16751
核查	-16752
check	-16753
和使用	-16754
▁badly	-16755
onz	-16756
耐火	-16757
▁benefic	-16758
rank	-16759
▁gene	-16760
▁Venezuel	-16761
到期	-16762
ML	-16763
高分子	-16764
是一名	-16765
出货	-16766
▁commander	-16767
▁Alp	-16768
▁signals	-16769
▁Jeremy	-16770
专属	-16771
PI	-16772
下行	-16773
▁statist	-16774
集成电路	-16775
▁principal	-16776
真人	-16777
食堂	-16778
nce	-16779
▁Ts	-16780
apore	-16781
▁eggs	-16782
峰会	-16783
途中	-16784
▁Montreal	-16785
▁genre	-16786
复工复产	-16787
太平洋	-16788
超出	-16789
′′	-16790
▁collaps	-16791
▁escal	-16792
▁interaction	-16793
学生们	-16794
站点	-16795
时期的	-16796
▁Change	-16797
发展改革委	-16798
轻易	-16799
▁economics	-16800
▁arts	-16801
检疫	-16802
节能减排	-16803
威尔	-16804
▁Barb	-16805
生物学	-16806
青山	-16807
全社会	-16808
起来的	-16809
▁unprecedented	-16810
▁export	-16811
▁partly	-16812
Just	-16813
▁loves	-16814
证件	-16815
▁Place	-16816
▁Marine	-16817
▁segment	-16818
▁citing	-16819
使人	-16820
热闹	-16821
▁Doctor	-16822
烹饪	-16823
北大	-16824
可以帮助	-16825
▁rend	-16826
▁occurs	-16827
新颖	-16828
▁Han	-16829
ipedia	-16830
▁lineup	-16831
万名	-16832
标杆	-16833
剧场	-16834
?)	-16835
▁convince	-16836
▁shoes	-16837
破碎	-16838
的最大	-16839
一一	-16840
▁attractive	-16841
被动	-16842
立场	-16843
▁tempor	-16844
▁requiring	-16845
吉林省	-16846
党委副书记	-16847
沙漠	-16848
招标文件	-16849
▁第六	-16850
instein	-16851
质量管理体系	-16852
广电	-16853
▁comics	-16854
grade	-16855
机等	-16856
广播电视	-16857
dr	-16858
▁我国	-16859
▁sheet	-16860
▁Argent	-16861
▁migrants	-16862
▁engineer	-16863
▁corrupt	-16864
等内容	-16865
杂质	-16866
cal	-16867
理想的	-16868
美术馆	-16869
丰田	-16870
边界	-16871
liest	-16872
期徒刑	-16873
▁杨	-16874
oga	-16875
▁elder	-16876
olving	-16877
智能家居	-16878
国民经济	-16879
arget	-16880
▁Missouri	-16881
的大小	-16882
▁compensation	-16883
渔业	-16884
农历	-16885
▁Library	-16886
吉祥	-16887
比特币	-16888
双向	-16889
在内	-16890
防爆	-16891
▁frequent	-16892
闻名	-16893
佛山	-16894
为您提供	-16895
保罗	-16896
▁lect	-16897
国家重点	-16898
▁amendment	-16899
的可能性	-16900
wa	-16901
路桥	-16902
直观	-16903
▁posting	-16904
营商环境	-16905
队伍建设	-16906
采暖	-16907
John	-16908
▁Flash	-16909
蓄电池	-16910
▁bullet	-16911
▁Tel	-16912
工业和信息化	-16913
万余	-16914
incoln	-16915
▁fabric	-16916
▁extraordinary	-16917
在过去	-16918
的存在	-16919
▁Sport	-16920
▁psychological	-16921
之后的	-16922
▁undert	-16923
▁constitu	-16924
曼联	-16925
开幕式	-16926
▁图	-16927
洪水	-16928
cor	-16929
▁approaches	-16930
▁mice	-16931
居家	-16932
ardo	-16933
的考生	-16934
应用的	-16935
▁instant	-16936
rowing	-16937
搜索引擎	-16938
ighth	-16939
的思想	-16940
省内	-16941
燃油	-16942
▁carries	-16943
▁removal	-16944
姑娘	-16945
▁homosexual	-16946
ean	-16947
我们需要	-16948
▁答	-16949
?’	-16950
▁publishing	-16951
了一场	-16952
section	-16953
▁weakness	-16954
▁Coal	-16955
▁unve	-16956
所能	-16957
▁Craig	-16958
▁deadline	-16959
大中	-16960
▁Everything	-16961
增长了	-16962
rena	-16963
▁perception	-16964
我们对	-16965
▁!	-16966
alling	-16967
可供	-16968
▁roots	-16969
利用率	-16970
转速	-16971
向往	-16972
光滑	-16973
融资租赁	-16974
RO	-16975
▁colour	-16976
发达国家	-16977
▁rolling	-16978
日正式	-16979
汇总	-16980
所说的	-16981
购置	-16982
ART	-16983
▁notable	-16984
▁cock	-16985
▁sections	-16986
活泼	-16987
辖区	-16988
[...]
